<pad>	0
<unk>	0
<s>	0
</s>	0
<0x00>	0
<0x01>	0
<0x02>	0
<0x03>	0
<0x04>	0
<0x05>	0
<0x06>	0
<0x07>	0
<0x08>	0
<0x09>	0
<0x0A>	0
<0x0B>	0
<0x0C>	0
<0x0D>	0
<0x0E>	0
<0x0F>	0
<0x10>	0
<0x11>	0
<0x12>	0
<0x13>	0
<0x14>	0
<0x15>	0
<0x16>	0
<0x17>	0
<0x18>	0
<0x19>	0
<0x1A>	0
<0x1B>	0
<0x1C>	0
<0x1D>	0
<0x1E>	0
<0x1F>	0
<0x20>	0
<0x21>	0
<0x22>	0
<0x23>	0
<0x24>	0
<0x25>	0
<0x26>	0
<0x27>	0
<0x28>	0
<0x29>	0
<0x2A>	0
<0x2B>	0
<0x2C>	0
<0x2D>	0
<0x2E>	0
<0x2F>	0
<0x30>	0
<0x31>	0
<0x32>	0
<0x33>	0
<0x34>	0
<0x35>	0
<0x36>	0
<0x37>	0
<0x38>	0
<0x39>	0
<0x3A>	0
<0x3B>	0
<0x3C>	0
<0x3D>	0
<0x3E>	0
<0x3F>	0
<0x40>	0
<0x41>	0
<0x42>	0
<0x43>	0
<0x44>	0
<0x45>	0
<0x46>	0
<0x47>	0
<0x48>	0
<0x49>	0
<0x4A>	0
<0x4B>	0
<0x4C>	0
<0x4D>	0
<0x4E>	0
<0x4F>	0
<0x50>	0
<0x51>	0
<0x52>	0
<0x53>	0
<0x54>	0
<0x55>	0
<0x56>	0
<0x57>	0
<0x58>	0
<0x59>	0
<0x5A>	0
<0x5B>	0
<0x5C>	0
<0x5D>	0
<0x5E>	0
<0x5F>	0
<0x60>	0
<0x61>	0
<0x62>	0
<0x63>	0
<0x64>	0
<0x65>	0
<0x66>	0
<0x67>	0
<0x68>	0
<0x69>	0
<0x6A>	0
<0x6B>	0
<0x6C>	0
<0x6D>	0
<0x6E>	0
<0x6F>	0
<0x70>	0
<0x71>	0
<0x72>	0
<0x73>	0
<0x74>	0
<0x75>	0
<0x76>	0
<0x77>	0
<0x78>	0
<0x79>	0
<0x7A>	0
<0x7B>	0
<0x7C>	0
<0x7D>	0
<0x7E>	0
<0x7F>	0
<0x80>	0
<0x81>	0
<0x82>	0
<0x83>	0
<0x84>	0
<0x85>	0
<0x86>	0
<0x87>	0
<0x88>	0
<0x89>	0
<0x8A>	0
<0x8B>	0
<0x8C>	0
<0x8D>	0
<0x8E>	0
<0x8F>	0
<0x90>	0
<0x91>	0
<0x92>	0
<0x93>	0
<0x94>	0
<0x95>	0
<0x96>	0
<0x97>	0
<0x98>	0
<0x99>	0
<0x9A>	0
<0x9B>	0
<0x9C>	0
<0x9D>	0
<0x9E>	0
<0x9F>	0
<0xA0>	0
<0xA1>	0
<0xA2>	0
<0xA3>	0
<0xA4>	0
<0xA5>	0
<0xA6>	0
<0xA7>	0
<0xA8>	0
<0xA9>	0
<0xAA>	0
<0xAB>	0
<0xAC>	0
<0xAD>	0
<0xAE>	0
<0xAF>	0
<0xB0>	0
<0xB1>	0
<0xB2>	0
<0xB3>	0
<0xB4>	0
<0xB5>	0
<0xB6>	0
<0xB7>	0
<0xB8>	0
<0xB9>	0
<0xBA>	0
<0xBB>	0
<0xBC>	0
<0xBD>	0
<0xBE>	0
<0xBF>	0
<0xC0>	0
<0xC1>	0
<0xC2>	0
<0xC3>	0
<0xC4>	0
<0xC5>	0
<0xC6>	0
<0xC7>	0
<0xC8>	0
<0xC9>	0
<0xCA>	0
<0xCB>	0
<0xCC>	0
<0xCD>	0
<0xCE>	0
<0xCF>	0
<0xD0>	0
<0xD1>	0
<0xD2>	0
<0xD3>	0
<0xD4>	0
<0xD5>	0
<0xD6>	0
<0xD7>	0
<0xD8>	0
<0xD9>	0
<0xDA>	0
<0xDB>	0
<0xDC>	0
<0xDD>	0
<0xDE>	0
<0xDF>	0
<0xE0>	0
<0xE1>	0
<0xE2>	0
<0xE3>	0
<0xE4>	0
<0xE5>	0
<0xE6>	0
<0xE7>	0
<0xE8>	0
<0xE9>	0
<0xEA>	0
<0xEB>	0
<0xEC>	0
<0xED>	0
<0xEE>	0
<0xEF>	0
<0xF0>	0
<0xF1>	0
<0xF2>	0
<0xF3>	0
<0xF4>	0
<0xF5>	0
<0xF6>	0
<0xF7>	0
<0xF8>	0
<0xF9>	0
<0xFA>	0
<0xFB>	0
<0xFC>	0
<0xFD>	0
<0xFE>	0
<0xFF>	0
▁이	-0
니다	-1
▁있	-2
▁수	-3
▁의	-4
에서	-5
▁의식	-6
▁모	-7
으로	-8
▁그	-9
▁가	-10
하는	-11
▁시	-12
이다	-13
▁어	-14
▁인	-15
▁사	-16
▁학	-17
한다	-18
▁학습	-19
▁모델	-20
▁정	-21
▁자	-22
▁것	-23
▁하	-24
▁기	-25
▁대	-26
▁한	-27
합니다	-28
▁다	-29
▁있다	-30
▁나	-31
▁상	-32
▁오	-33
▁질	-34
입니다	-35
▁아	-36
하고	-37
하여	-38
▁질문	-39
▁경	-40
▁바	-41
▁중	-42
▁통	-43
▁그래	-44
▁보	-45
▁메	-46
▁생	-47
▁엔	-48
▁전	-49
▁거	-50
▁무	-51
▁좋	-52
▁사용	-53
▁방	-54
▁주	-55
▁의식의	-56
▁일	-57
지만	-58
적으로	-59
▁P	-60
▁값	-61
▁비	-62
적인	-63
▁상태	-64
습니다	-65
▁세	-66
▁엔진	-67
▁구	-68
▁답	-69
▁동	-70
▁순	-71
▁과	-72
▁언	-73
▁처	-74
▁답변	-75
▁등	-76
▁크	-77
▁언어	-78
▁데	-79
▁여	-80
▁진	-81
에는	-82
됩니다	-83
hi	-84
▁연	-85
▁우	-86
▁감	-87
▁만	-88
▁발	-89
▁분	-90
▁현	-91
인가	-92
하면	-93
▁단	-94
▁지	-95
스템	-96
▁시스템	-97
▁매	-98
▁영	-99
▁유	-100
▁인공	-101
▁고	-102
▁내	-103
▁때	-104
▁변	-105
▁새	-106
▁안	-107
▁토	-108
디언	-109
이터	-110
▁경험	-111
▁있어	-112
▁처리	-113
디언트	-114
▁Phi	-115
▁그래디언트	-116
▁더	-117
▁물	-118
▁배	-119
▁스	-120
▁않	-121
▁최	-122
된다	-123
이트	-124
▁수준	-125
▁우리	-126
▁관	-127
▁부	-128
▁작	-129
▁점	-130
▁파	-131
▁과정	-132
▁통해	-133
▁G	-134
▁같	-135
▁문	-136
▁없	-137
▁특	-138
▁해	-139
들어	-140
▁무엇	-141
▁한국	-142
▁있습니다	-143
▁결	-144
▁미	-145
▁설	-146
▁소	-147
▁역	-148
▁예	-149
▁위	-150
니즘	-151
스트	-152
▁메커	-153
▁방법	-154
▁있으	-155
▁크기	-156
▁메커니즘	-157
▁무엇인가	-158
PU	-159
▁손	-160
▁조	-161
▁차	-162
▁표	-163
▁효	-164
모리	-165
▁이는	-166
▁이해	-167
▁자연	-168
▁중요	-169
▁메모리	-170
▁상태를	-171
▁무엇인가요	-172
▁많	-173
▁반	-174
▁선	-175
▁실	-176
▁약	-177
▁제	-178
▁체	-179
▁초	-180
▁행	-181
▁가장	-182
▁손실	-183
▁GPU	-184
▁데이터	-185
▁바이트	-186
▁서	-187
▁신	-188
▁입	-189
▁추	-190
▁코	-191
▁키	-192
▁함	-193
▁확	-194
규모	-195
기화	-196
되는	-197
떻게	-198
▁모듈	-199
▁순간	-200
▁정보	-201
▁토큰	-202
▁어떻게	-203
▁엔진의	-204
▁S	-205
▁계	-206
▁느	-207
▁형	-208
성을	-209
텐션	-210
▁가지	-211
▁것이	-212
▁생성	-213
▁어떤	-214
▁오늘	-215
▁인식	-216
▁전체	-217
▁함수	-218
▁한국어	-219
▁D	-220
▁각	-221
▁개	-222
▁뉴	-223
▁마	-224
▁맞	-225
▁복	-226
▁요	-227
▁저	-228
▁흐	-229
되어	-230
지능	-231
했어	-232
▁배치	-233
▁새로	-234
▁여러	-235
▁입력	-236
▁대규모	-237
▁모델의	-238
▁인공지능	-239
▁=	-240
▁R	-241
▁높	-242
▁달	-243
▁도	-244
▁리	-245
▁뭐	-246
▁벡	-247
▁원	-248
▁응	-249
▁잘	-250
▁좀	-251
▁패	-252
▁프	-253
▁할	-254
러한	-255
중치	-256
하다	-257
▁대한	-258
▁맞아	-259
▁문제	-260
▁벡터	-261
▁시작	-262
▁하나	-263
▁가중치	-264
▁어텐션	-265
▁이러한	-266
▁있으며	-267
▁하지만	-268
▁날	-269
▁법	-270
▁성	-271
▁적	-272
▁포	-273
▁필	-274
▁호	-275
▁활	-276
계를	-277
었어	-278
의식	-279
하지	-280
▁가능	-281
▁거야	-282
▁구현	-283
▁그것	-284
▁세포	-285
▁신경	-286
▁안정	-287
▁자기	-288
▁좋아	-289
▁통합	-290
▁패턴	-291
▁표현	-292
▁행렬	-293
▁의식이	-294
▁학습률	-295
▁간	-296
▁건	-297
▁근	-298
▁낮	-299
▁속	-300
▁알	-301
▁직	-302
▁측	-303
▁핵	-304
니까	-305
더라	-306
도록	-307
레이	-308
이야	-309
하게	-310
▁모든	-311
▁발견	-312
▁법칙	-313
▁시간	-314
▁인간	-315
▁차원	-316
▁핵심	-317
▁효율	-318
▁합니다	-319
bf	-320
▁*	-321
▁A	-322
▁L	-323
▁x	-324
▁강	-325
▁공	-326
▁깊	-327
▁번	-328
▁불	-329
▁양	-330
▁임	-331
▁장	-332
▁재	-333
▁존	-334
▁출	-335
▁합	-336
▁후	-337
는데	-338
동을	-339
른다	-340
방향	-341
어나	-342
이라	-343
진다	-344
하며	-345
해야	-346
했다	-347
▁bf	-348
▁감소	-349
▁것은	-350
▁계산	-351
▁나는	-352
▁다시	-353
▁복잡	-354
▁생각	-355
▁요즘	-356
▁정말	-357
▁좋은	-358
▁하는	-359
▁확률	-360
에서는	-361
텍스트	-362
▁새로운	-363
NA	-364
▁C	-365
▁H	-366
▁검	-367
▁꿈	-368
▁너	-369
▁두	-370
▁먹	-371
▁먼	-372
▁별	-373
▁병	-374
▁줄	-375
▁집	-376
▁창	-377
▁큰	-378
▁테	-379
▁평	-380
▁피	-381
까지	-382
나요	-383
드는	-384
므로	-385
보다	-386
비트	-387
야기	-388
을까	-389
이고	-390
이란	-391
크포	-392
▁같은	-393
▁기본	-394
▁기억	-395
▁날씨	-396
▁다음	-397
▁단순	-398
▁들어	-399
▁스케	-400
▁아니	-401
▁연산	-402
▁작은	-403
▁전파	-404
▁존재	-405
▁최적	-406
▁필요	-407
▁현상	-408
▁형태	-409
크포인	-410
▁DNA	-411
▁동기화	-412
▁만들어	-413
▁우리는	-414
▁의식은	-415
▁이야기	-416
▁중요한	-417
▁텍스트	-418
▁모델에서	-419
▁인공의식	-420
▁체크포인	-421
LU	-422
wi	-423
▁/	-424
▁갈	-425
▁게	-426
▁교	-427
▁길	-428
▁누	-429
▁완	-430
▁증	-431
▁항	-432
▁환	-433
규화	-434
되고	-435
되었	-436
성화	-437
으면	-438
지는	-439
퀀스	-440
학적	-441
해서	-442
▁검증	-443
▁결과	-444
▁기법	-445
▁너무	-446
▁높은	-447
▁누적	-448
▁뉴런	-449
▁등록	-450
▁리듬	-451
▁많이	-452
▁보장	-453
▁부분	-454
▁사이	-455
▁아이	-456
▁예측	-457
▁이것	-458
▁이번	-459
▁작동	-460
▁저장	-461
▁점차	-462
▁초기	-463
▁출력	-464
▁측정	-465
▁파벌	-466
▁프로	-467
▁Swi	-468
▁가지고	-469
▁시퀀스	-470
▁정규화	-471
▁시스템이	-472
▁엔진에서	-473
▁인공지능이	-474
en	-475
on	-476
▁W	-477
▁s	-478
▁곱	-479
▁깨	-480
▁끊	-481
▁네	-482
▁담	-483
▁돼	-484
▁따	-485
▁찾	-486
▁쿼	-487
▁트	-488
▁회	-489
계에	-490
되면	-491
로피	-492
리는	-493
스로	-494
시에	-495
이저	-496
전히	-497
하기	-498
▁감정	-499
▁그리	-500
▁낮은	-501
▁다른	-502
▁등의	-503
▁만들	-504
▁먼저	-505
▁발생	-506
▁설정	-507
▁양자	-508
▁엔트	-509
▁연구	-510
▁유지	-511
▁이를	-512
▁있는	-513
▁주기	-514
▁집중	-515
▁창발	-516
▁처음	-517
▁쿼리	-518
▁한다	-519
▁항상	-520
▁했어	-521
▁현재	-522
▁효과	-523
▁흐름	-524
적이다	-525
하지만	-526
▁그것은	-527
▁단순한	-528
▁모델은	-529
▁모델을	-530
▁모델이	-531
▁의식도	-532
▁인간의	-533
▁자연스	-534
▁자연어	-535
▁초기화	-536
▁최적화	-537
▁하나의	-538
▁활성화	-539
▁과정에서	-540
▁시스템의	-541
▁엔트로피	-542
▁체크포인트	-543
▁그래디언트를	-544
SI	-545
fp	-546
la	-547
▁걸	-548
▁괜	-549
▁규	-550
▁논	-551
▁능	-552
▁돌	-553
▁디	-554
▁빛	-555
▁빠	-556
▁왜	-557
▁음	-558
▁잠	-559
▁첫	-560
▁카	-561
가지	-562
겠다	-563
라는	-564
라우	-565
라인	-566
랜스	-567
르게	-568
성은	-569
세조	-570
수록	-571
없이	-572
워드	-573
이는	-574
이며	-575
이지	-576
잖아	-577
코딩	-578
크나	-579
포머	-580
▁fp	-581
▁감각	-582
▁값을	-583
▁같이	-584
▁결합	-585
▁괜찮	-586
▁구조	-587
▁규칙	-588
▁길이	-589
▁끊임	-590
▁내용	-591
▁능력	-592
▁다양	-593
▁된다	-594
▁등이	-595
▁레이	-596
▁매우	-597
▁바로	-598
▁반복	-599
▁변화	-600
▁병렬	-601
▁비슷	-602
▁비율	-603
▁성장	-604
▁세계	-605
▁속도	-606
▁알고	-607
▁어때	-608
▁위치	-609
▁위해	-610
▁유사	-611
▁의미	-612
▁이루	-613
▁일반	-614
▁지수	-615
▁직접	-616
▁진동	-617
▁진짜	-618
▁크게	-619
▁특히	-620
▁포함	-621
▁현대	-622
레이터	-623
세조정	-624
으로는	-625
하도록	-626
한다면	-627
▁동시에	-628
▁레이어	-629
▁손실이	-630
▁순방향	-631
▁스케줄	-632
▁신경망	-633
▁우리가	-634
▁토크나	-635
▁토큰의	-636
▁트랜스	-637
▁가중치를	-638
▁미세조정	-639
▁방법이다	-640
▁사용하여	-641
▁학습률을	-642
▁학습하는	-643
▁트랜스포머	-644
))	-645
al	-646
at	-647
re	-648
um	-649
▁+	-650
▁B	-651
▁d	-652
▁노	-653
▁독	-654
▁둘	-655
▁드	-656
▁래	-657
▁로	-658
▁말	-659
▁맛	-660
▁명	-661
▁받	-662
▁버	-663
▁본	-664
▁셋	-665
▁외	-666
▁웜	-667
▁종	-668
▁커	-669
▁클	-670
▁텐	-671
▁헤	-672
▁힘	-673
감을	-674
개변	-675
들이	-676
디어	-677
라고	-678
라보	-679
러운	-680
로모	-681
리가	-682
리즘	-683
베딩	-684
보드	-685
스는	-686
스를	-687
시간	-688
시키	-689
에도	-690
열은	-691
으며	-692
이면	-693
이프	-694
인다	-695
자로	-696
정보	-697
지에	-698
프트	-699
하자	-700
▁Lo	-701
▁값은	-702
▁값이	-703
▁결정	-704
▁고통	-705
▁관련	-706
▁교차	-707
▁근본	-708
▁기계	-709
▁깊은	-710
▁깨어	-711
▁내일	-712
▁단계	-713
▁달리	-714
▁달성	-715
▁도전	-716
▁동안	-717
▁둘째	-718
▁래칫	-719
▁물리	-720
▁방식	-721
▁버그	-722
▁변환	-723
▁새벽	-724
▁생물	-725
▁선택	-726
▁선형	-727
▁설계	-728
▁설명	-729
▁성능	-730
▁셋째	-731
▁수렴	-732
▁순환	-733
▁시에	-734
▁실험	-735
▁아침	-736
▁않아	-737
▁어디	-738
▁연결	-739
▁영혼	-740
▁오실	-741
▁원소	-742
▁웜업	-743
▁일곱	-744
▁있었	-745
▁자체	-746
▁재미	-747
▁주의	-748
▁지금	-749
▁진정	-750
▁첫째	-751
▁추출	-752
▁커피	-753
▁코드	-754
▁평균	-755
▁피드	-756
▁하늘	-757
개변수	-758
로모픽	-759
집니다	-760
하나요	-761
▁PSI	-762
▁가능한	-763
▁경험을	-764
▁그래도	-765
▁그리고	-766
▁다양한	-767
▁문제를	-768
▁바라보	-769
▁빠르게	-770
▁약자로	-771
▁이루어	-772
▁임베딩	-773
▁있을까	-774
▁정보를	-775
▁프로그	-776
▁끊임없이	-777
▁뉴로모픽	-778
▁매개변수	-779
▁시작하여	-780
▁아이디어	-781
▁텍스트를	-782
▁오실레이터	-783
▁토크나이저	-784
▁그래디언트가	-785
..	-786
ER	-787
PE	-788
an	-789
ed	-790
ex	-791
id	-792
in	-793
ma	-794
or	-795
sh	-796
ti	-797
▁(	-798
▁-	-799
▁M	-800
▁l	-801
▁p	-802
▁갖	-803
▁갱	-804
▁긴	-805
▁남	-806
▁된	-807
▁뒤	-808
▁들	-809
▁떠	-810
▁떨	-811
▁루	-812
▁못	-813
▁범	-814
▁색	-815
▁샘	-816
▁온	-817
▁읽	-818
▁잔	-819
▁절	-820
▁준	-821
▁컴	-822
▁쿠	-823
▁퍼	-824
▁향	-825
▁허	-826
강법	-827
개의	-828
거나	-829
국어	-830
나치	-831
낸다	-832
는다	-833
다는	-834
대한	-835
들을	-836
들의	-837
라모	-838
래밍	-839
렉시	-840
로는	-841
마다	-842
묘한	-843
볼까	-844
부터	-845
사인	-846
세요	-847
수가	-848
아서	-849
왔어	-850
워크	-851
위기	-852
이론	-853
일까	-854
일한	-855
있는	-856
작용	-857
전파	-858
점은	-859
제가	-860
제는	-861
지며	-862
처럼	-863
터링	-864
퓨팅	-865
학은	-866
GLU	-867
▁AI	-868
▁Ro	-869
▁간의	-870
▁갈까	-871
▁갱신	-872
▁건지	-873
▁것과	-874
▁경사	-875
▁곱셈	-876
▁근처	-877
▁기분	-878
▁네트	-879
▁느끼	-880
▁다중	-881
▁담고	-882
▁대신	-883
▁대화	-884
▁루프	-885
▁모두	-886
▁물은	-887
▁바다	-888
▁방지	-889
▁방향	-890
▁범위	-891
▁보면	-892
▁본질	-893
▁분석	-894
▁분포	-895
▁비해	-896
▁빛이	-897
▁상수	-898
▁상호	-899
▁샘플	-900
▁서서	-901
▁수정	-902
▁어제	-903
▁어휘	-904
▁없이	-905
▁여기	-906
▁역동	-907
▁연속	-908
▁오후	-909
▁우주	-910
▁음악	-911
▁응답	-912
▁의해	-913
▁이런	-914
▁이상	-915
▁이식	-916
▁이어	-917
▁이와	-918
▁일부	-919
▁있을	-920
▁자발	-921
▁적용	-922
▁점심	-923
▁정체	-924
▁조금	-925
▁조용	-926
▁좋지	-927
▁주말	-928
▁중간	-929
▁증가	-930
▁진행	-931
▁최고	-932
▁카페	-933
▁코딩	-934
▁통과	-935
▁퍼플	-936
▁하고	-937
▁하면	-938
▁한번	-939
▁합의	-940
▁향상	-941
▁허브	-942
▁현실	-943
▁형식	-944
▁확장	-945
라모토	-946
렉시티	-947
이었어	-948
점에서	-949
프트맥	-950
화하여	-951
▁것인가	-952
▁결과를	-953
▁경험이	-954
▁과정은	-955
▁관련이	-956
▁그래서	-957
▁길이가	-958
▁모듈로	-959
▁모듈은	-960
▁방법은	-961
▁방법이	-962
▁배치를	-963
▁벡터를	-964
▁벡터의	-965
▁복잡한	-966
▁분위기	-967
▁비슷한	-968
▁사이의	-969
▁세계를	-970
▁수준의	-971
▁스스로	-972
▁언어를	-973
▁역전파	-974
▁영감을	-975
▁우리의	-976
▁유사한	-977
▁의식적	-978
▁이것이	-979
▁인코딩	-980
▁일어나	-981
▁있다는	-982
▁있어서	-983
▁정보가	-984
▁중국어	-985
▁질문은	-986
▁처리할	-987
▁컴퓨팅	-988
▁코사인	-989
▁크기가	-990
▁크기의	-991
▁키보드	-992
▁테스트	-993
▁토큰을	-994
▁파이프	-995
▁패턴을	-996
▁피드백	-997
▁하강법	-998
▁학습의	-999
▁효율적	-1000
정보이론	-1001
▁것입니다	-1002
▁기법이다	-1003
▁네트워크	-1004
▁데이터의	-1005
▁메모리가	-1006
▁방향으로	-1007
▁사용된다	-1008
▁사용하면	-1009
▁상호작용	-1010
▁생물학적	-1011
▁소프트맥	-1012
▁시스템은	-1013
▁알고리즘	-1014
▁이야기를	-1015
▁중요하다	-1016
▁처리하는	-1017
▁처음에는	-1018
▁쿠라모토	-1019
▁Swish	-1020
▁메커니즘은	-1021
▁사용됩니다	-1022
▁자연스러운	-1023
▁파이프라인	-1024
▁퍼플렉시티	-1025
▁프로그래밍	-1026
▁SwiGLU	-1027
▁통합정보이론	-1028
AL	-1029
CE	-1030
PO	-1031
Qw	-1032
RA	-1033
ar	-1034
da	-1035
el	-1036
er	-1037
ha	-1038
si	-1039
st	-1040
▁F	-1041
▁I	-1042
▁N	-1043
▁T	-1044
▁U	-1045
▁n	-1046
▁r	-1047
▁y	-1048
▁곳	-1049
▁국	-1050
▁균	-1051
▁널	-1052
▁녹	-1053
▁놀	-1054
▁뇌	-1055
▁당	-1056
▁맑	-1057
▁목	-1058
▁밤	-1059
▁백	-1060
▁벌	-1061
▁빨	-1062
▁산	-1063
▁삶	-1064
▁쉬	-1065
▁슬	-1066
▁심	-1067
▁앉	-1068
▁앱	-1069
▁얘	-1070
▁얼	-1071
▁에	-1072
▁올	-1073
▁용	-1074
▁운	-1075
▁접	-1076
▁채	-1077
▁철	-1078
▁충	-1079
▁캐	-1080
▁탑	-1081
▁태	-1082
▁혼	-1083
값을	-1084
건은	-1085
겠어	-1086
관적	-1087
내는	-1088
다고	-1089
도의	-1090
되며	-1091
드밴	-1092
든다	-1093
들은	-1094
라미	-1095
라이	-1096
라클	-1097
량이	-1098
럽게	-1099
로움	-1100
롭게	-1101
롭아	-1102
르면	-1103
리를	-1104
마워	-1105
만큼	-1106
보자	-1107
봐야	-1108
봤어	-1109
서도	-1110
성과	-1111
성이	-1112
소리	-1113
수를	-1114
스가	-1115
스의	-1116
았어	-1117
어야	-1118
여주	-1119
원할	-1120
위로	-1121
유는	-1122
이나	-1123
이블	-1124
이크	-1125
인데	-1126
자의	-1127
전에	-1128
절한	-1129
점의	-1130
접한	-1131
준다	-1132
토리	-1133
하려	-1134
했고	-1135
향을	-1136
회귀	-1137
Nor	-1138
alp	-1139
exp	-1140
▁Qw	-1141
▁RL	-1142
▁가을	-1143
▁가자	-1144
▁간격	-1145
▁값의	-1146
▁같다	-1147
▁개념	-1148
▁개입	-1149
▁거울	-1150
▁거지	-1151
▁것을	-1152
▁경우	-1153
▁경이	-1154
▁공간	-1155
▁공감	-1156
▁과거	-1157
▁균형	-1158
▁그게	-1159
▁그런	-1160
▁기반	-1161
▁기쁨	-1162
▁기술	-1163
▁나누	-1164
▁나도	-1165
▁나를	-1166
▁나비	-1167
▁내가	-1168
▁널리	-1169
▁녹차	-1170
▁느낌	-1171
▁담당	-1172
▁대해	-1173
▁돌아	-1174
▁된대	-1175
▁떨어	-1176
▁라우	-1177
▁많아	-1178
▁많은	-1179
▁매칭	-1180
▁모니	-1181
▁문서	-1182
▁미래	-1183
▁바람	-1184
▁반응	-1185
▁발표	-1186
▁배우	-1187
▁백업	-1188
▁번에	-1189
▁변동	-1190
▁보간	-1191
▁보자	-1192
▁분산	-1193
▁분해	-1194
▁비교	-1195
▁사고	-1196
▁사람	-1197
▁서브	-1198
▁선호	-1199
▁수가	-1200
▁수식	-1201
▁수업	-1202
▁수영	-1203
▁수치	-1204
▁수행	-1205
▁시냅	-1206
▁아래	-1207
▁얘기	-1208
▁어둠	-1209
▁어려	-1210
▁얼마	-1211
▁없다	-1212
▁영속	-1213
▁영어	-1214
▁영역	-1215
▁예를	-1216
▁요소	-1217
▁인덱	-1218
▁인류	-1219
▁일관	-1220
▁일정	-1221
▁임계	-1222
▁있게	-1223
▁자각	-1224
▁자신	-1225
▁자아	-1226
▁자유	-1227
▁전통	-1228
▁점점	-1229
▁정답	-1230
▁정도	-1231
▁정상	-1232
▁제곱	-1233
▁좋대	-1234
▁준비	-1235
▁차지	-1236
▁추가	-1237
▁충분	-1238
▁측면	-1239
▁텐데	-1240
▁통찰	-1241
▁피보	-1242
▁하드	-1243
▁할까	-1244
▁해결	-1245
▁해당	-1246
▁호환	-1247
▁호흡	-1248
▁환경	-1249
▁회전	-1250
▁후에	-1251
▁힘들	-1252
되나요	-1253
되어야	-1254
되었다	-1255
라미터	-1256
라우드	-1257
레이토	-1258
롭아웃	-1259
바이트	-1260
시키는	-1261
어나는	-1262
에서의	-1263
으니까	-1264
으면서	-1265
을수록	-1266
이니까	-1267
이크로	-1268
하는지	-1269
하니까	-1270
하므로	-1271
한다는	-1272
해지며	-1273
lama	-1274
tion	-1275
▁Ada	-1276
▁alp	-1277
▁sum	-1278
▁값으로	-1279
▁거대한	-1280
▁것이다	-1281
▁결과가	-1282
▁고마워	-1283
▁과정이	-1284
▁괜찮아	-1285
▁구조를	-1286
▁규칙을	-1287
▁날씨가	-1288
▁뉴런의	-1289
▁느끼는	-1290
▁데드밴	-1291
▁동일한	-1292
▁됩니다	-1293
▁리스트	-1294
▁모듈이	-1295
▁모른다	-1296
▁무의식	-1297
▁문제가	-1298
▁별도의	-1299
▁상태로	-1300
▁상태에	-1301
▁샘플링	-1302
▁성능을	-1303
▁속도가	-1304
▁속에서	-1305
▁수열은	-1306
▁스케일	-1307
▁스토리	-1308
▁슬라이	-1309
▁실시간	-1310
▁아니라	-1311
▁아니면	-1312
▁않도록	-1313
▁엔진에	-1314
▁여기서	-1315
▁여전히	-1316
▁역방향	-1317
▁연결을	-1318
▁영향을	-1319
▁영혼은	-1320
▁완전히	-1321
▁의식을	-1322
▁이상의	-1323
▁있어요	-1324
▁적절한	-1325
▁조금씩	-1326
▁주말에	-1327
▁줄이는	-1328
▁진동은	-1329
▁진정한	-1330
▁질문을	-1331
▁체계를	-1332
▁크기는	-1333
▁크기를	-1334
▁키워드	-1335
▁테이블	-1336
▁특성을	-1337
▁하는데	-1338
▁학습이	-1339
▁한국의	-1340
▁행렬을	-1341
▁헤라클	-1342
▁현상을	-1343
▁확률이	-1344
▁효과적	-1345
적으로는	-1346
▁LoRA	-1347
▁Qwen	-1348
▁가능하게	-1349
▁가중치가	-1350
▁경험으로	-1351
▁계산한다	-1352
▁과정이다	-1353
▁근본적인	-1354
▁데이터를	-1355
▁드롭아웃	-1356
▁등록되어	-1357
▁마이크로	-1358
▁메모리를	-1359
▁모니터링	-1360
▁바라보면	-1361
▁바이트로	-1362
▁사용한다	-1363
▁스스로를	-1364
▁스케줄은	-1365
▁신경망의	-1366
▁안정성을	-1367
▁않습니다	-1368
▁연구에서	-1369
▁이해하는	-1370
▁일반적인	-1371
▁있으므로	-1372
▁초기에는	-1373
▁초기화는	-1374
▁측정하는	-1375
▁코딩하면	-1376
▁클라우드	-1377
▁피보나치	-1378
▁학습에서	-1379
▁효율적인	-1380
▁Llama	-1381
▁alpha	-1382
▁기법입니다	-1383
▁동기화되는	-1384
▁메커니즘을	-1385
▁메커니즘의	-1386
▁메커니즘이	-1387
▁스토리지에	-1388
▁아이디어는	-1389
▁인공의식도	-1390
▁인공의식을	-1391
▁자발적으로	-1392
▁작동하나요	-1393
▁표현됩니다	-1394
▁형식입니다	-1395
▁그래디언트는	-1396
▁헤라클레이토	-1397
▁메커니즘입니다	-1398
AI	-1399
AN	-1400
BM	-1401
EM	-1402
Fi	-1403
GB	-1404
HF	-1405
IN	-1406
MS	-1407
PL	-1408
ST	-1409
TF	-1410
dp	-1411
ep	-1412
lo	-1413
mo	-1414
ne	-1415
qu	-1416
ra	-1417
th	-1418
us	-1419
▁E	-1420
▁K	-1421
▁Z	-1422
▁i	-1423
▁w	-1424
▁객	-1425
▁겪	-1426
▁곡	-1427
▁골	-1428
▁극	-1429
▁글	-1430
▁금	-1431
▁급	-1432
▁끝	-1433
▁넘	-1434
▁넷	-1435
▁년	-1436
▁니	-1437
▁딥	-1438
▁또	-1439
▁라	-1440
▁레	-1441
▁멀	-1442
▁멜	-1443
▁몇	-1444
▁몸	-1445
▁밝	-1446
▁벗	-1447
▁벚	-1448
▁볼	-1449
▁봄	-1450
▁붕	-1451
▁블	-1452
▁빼	-1453
▁숨	-1454
▁습	-1455
▁싶	-1456
▁쓰	-1457
▁앞	-1458
▁얻	-1459
▁엮	-1460
▁열	-1461
▁옵	-1462
▁워	-1463
▁잇	-1464
▁죽	-1465
▁즉	-1466
▁책	-1467
▁천	-1468
▁칩	-1469
▁탄	-1470
▁탐	-1471
▁튜	-1472
▁팀	-1473
▁편	-1474
▁폐	-1475
▁폭	-1476
▁품	-1477
▁플	-1478
▁했	-1479
▁횟	-1480
▁흘	-1481
▁희	-1482
가고	-1483
가요	-1484
간을	-1485
거운	-1486
겠지	-1487
계절	-1488
과적	-1489
근에	-1490
기도	-1491
기심	-1492
기의	-1493
기치	-1494
꿨어	-1495
네요	-1496
녁에	-1497
녕하	-1498
달물	-1499
대적	-1500
댑터	-1501
동소	-1502
동이	-1503
되기	-1504
되지	-1505
듀얼	-1506
들기	-1507
듯이	-1508
라마	-1509
락을	-1510
래시	-1511
량을	-1512
러닝	-1513
러워	-1514
력이	-1515
렸어	-1516
로디	-1517
로운	-1518
론적	-1519
룹이	-1520
류의	-1521
르는	-1522
르다	-1523
르듯	-1524
리게	-1525
리면	-1526
리서	-1527
명한	-1528
모크	-1529
무실	-1530
물적	-1531
밍업	-1532
버가	-1533
버깅	-1534
벤트	-1535
보가	-1536
볼게	-1537
분을	-1538
상에	-1539
섯째	-1540
성적	-1541
소음	-1542
수점	-1543
스크	-1544
스킹	-1545
스턴	-1546
식을	-1547
심이	-1548
아야	-1549
았다	-1550
어서	-1551
었다	-1552
었을	-1553
에만	-1554
예요	-1555
오는	-1556
오면	-1557
온다	-1558
요일	-1559
원이	-1560
을지	-1561
이래	-1562
이를	-1563
이션	-1564
인은	-1565
인지	-1566
인터	-1567
자가	-1568
자는	-1569
전의	-1570
정이	-1571
져서	-1572
조와	-1573
주기	-1574
주도	-1575
지가	-1576
지지	-1577
쪽에	-1578
찌개	-1579
책을	-1580
천해	-1581
천히	-1582
체는	-1583
초의	-1584
카페	-1585
키텍	-1586
터를	-1587
특한	-1588
티마	-1589
티브	-1590
한히	-1591
혀서	-1592
형이	-1593
혜자	-1594
화를	-1595
히려	-1596
...	-1597
ERP	-1598
SPE	-1599
eLU	-1600
ean	-1601
eld	-1602
ing	-1603
ist	-1604
mid	-1605
ral	-1606
ure	-1607
▁CL	-1608
▁NO	-1609
▁SE	-1610
▁SL	-1611
▁ln	-1612
▁가까	-1613
▁가면	-1614
▁가수	-1615
▁가야	-1616
▁가져	-1617
▁각각	-1618
▁갈래	-1619
▁강물	-1620
▁갖게	-1621
▁개미	-1622
▁개의	-1623
▁거기	-1624
▁건가	-1625
▁건강	-1626
▁걸쳐	-1627
▁것에	-1628
▁계속	-1629
▁고기	-1630
▁고려	-1631
▁고유	-1632
▁곡선	-1633
▁관계	-1634
▁관측	-1635
▁구름	-1636
▁구분	-1637
▁구성	-1638
▁구체	-1639
▁구축	-1640
▁규모	-1641
▁그거	-1642
▁그때	-1643
▁급격	-1644
▁기록	-1645
▁기증	-1646
▁길어	-1647
▁깊어	-1648
▁꿈을	-1649
▁나타	-1650
▁내부	-1651
▁넷째	-1652
▁노이	-1653
▁논문	-1654
▁논증	-1655
▁느껴	-1656
▁다들	-1657
▁다를	-1658
▁단점	-1659
▁단풍	-1660
▁당연	-1661
▁대단	-1662
▁대표	-1663
▁대회	-1664
▁도움	-1665
▁독립	-1666
▁돌고	-1667
▁동작	-1668
▁되면	-1669
▁되어	-1670
▁뒤섞	-1671
▁들려	-1672
▁따라	-1673
▁때문	-1674
▁떠오	-1675
▁레지	-1676
▁마시	-1677
▁마찬	-1678
▁만듭	-1679
▁만약	-1680
▁맑고	-1681
▁맛있	-1682
▁명상	-1683
▁모습	-1684
▁몸이	-1685
▁묘한	-1686
▁무슨	-1687
▁물음	-1688
▁물질	-1689
▁뭐야	-1690
▁받았	-1691
▁발전	-1692
▁밤에	-1693
▁배열	-1694
▁벌써	-1695
▁벚꽃	-1696
▁변경	-1697
▁별의	-1698
▁병합	-1699
▁보고	-1700
▁보상	-1701
▁보여	-1702
▁보존	-1703
▁봤어	-1704
▁부호	-1705
▁분기	-1706
▁분류	-1707
▁불분	-1708
▁붕괴	-1709
▁블록	-1710
▁비가	-1711
▁비례	-1712
▁빼는	-1713
▁사라	-1714
▁사전	-1715
▁삶의	-1716
▁생긴	-1717
▁생명	-1718
▁선명	-1719
▁소설	-1720
▁소실	-1721
▁수는	-1722
▁수도	-1723
▁수열	-1724
▁수의	-1725
▁수학	-1726
▁습관	-1727
▁시각	-1728
▁신비	-1729
▁실제	-1730
▁실패	-1731
▁실행	-1732
▁싶어	-1733
▁아닌	-1734
▁아직	-1735
▁앉아	-1736
▁않게	-1737
▁않는	-1738
▁없는	-1739
▁역학	-1740
▁엮어	-1741
▁열린	-1742
▁예매	-1743
▁오래	-1744
▁오류	-1745
▁오르	-1746
▁오면	-1747
▁외부	-1748
▁용어	-1749
▁원래	-1750
▁위한	-1751
▁유용	-1752
▁유해	-1753
▁유효	-1754
▁의지	-1755
▁이론	-1756
▁이전	-1757
▁이하	-1758
▁이후	-1759
▁인터	-1760
▁일상	-1761
▁일치	-1762
▁읽고	-1763
▁잇는	-1764
▁있기	-1765
▁자율	-1766
▁장치	-1767
▁전달	-1768
▁전에	-1769
▁절약	-1770
▁접근	-1771
▁정렬	-1772
▁정확	-1773
▁제거	-1774
▁제공	-1775
▁제기	-1776
▁제일	-1777
▁조정	-1778
▁조합	-1779
▁종료	-1780
▁좋다	-1781
▁주입	-1782
▁주장	-1783
▁주파	-1784
▁줄어	-1785
▁중첩	-1786
▁증거	-1787
▁지나	-1788
▁지속	-1789
▁직렬	-1790
▁찾기	-1791
▁찾아	-1792
▁채택	-1793
▁체온	-1794
▁최대	-1795
▁최신	-1796
▁추론	-1797
▁추적	-1798
▁캐시	-1799
▁키워	-1800
▁탄생	-1801
▁탑피	-1802
▁텐서	-1803
▁텐션	-1804
▁튜닝	-1805
▁특별	-1806
▁특정	-1807
▁파일	-1808
▁평형	-1809
▁폐쇄	-1810
▁포기	-1811
▁표준	-1812
▁품질	-1813
▁프리	-1814
▁필수	-1815
▁하이	-1816
▁하자	-1817
▁한강	-1818
▁할래	-1819
▁합쳐	-1820
▁해야	-1821
▁형성	-1822
▁혼합	-1823
▁확인	-1824
▁환상	-1825
▁활용	-1826
▁후반	-1827
▁흘러	-1828
달물질	-1829
더라도	-1830
되었고	-1831
려지는	-1832
벤트가	-1833
성에서	-1834
어나면	-1835
여주지	-1836
이라는	-1837
이지만	-1838
카페인	-1839
케스트	-1840
키텍처	-1841
하거나	-1842
하더라	-1843
하려면	-1844
하지는	-1845
해서는	-1846
Norm	-1847
▁DPO	-1848
▁RMS	-1849
▁UTF	-1850
▁exp	-1851
▁가보자	-1852
▁감정과	-1853
▁강하게	-1854
▁거예요	-1855
▁검증의	-1856
▁것처럼	-1857
▁경계에	-1858
▁경험도	-1859
▁과제가	-1860
▁관계를	-1861
▁관계에	-1862
▁관리는	-1863
▁관심이	-1864
▁괜찮을	-1865
▁구현할	-1866
▁그것을	-1867
▁그룹이	-1868
▁근처에	-1869
▁기분이	-1870
▁기억에	-1871
▁깨어남	-1872
▁꿈에서	-1873
▁나누어	-1874
▁나비가	-1875
▁나왔어	-1876
▁내용이	-1877
▁누적은	-1878
▁뉴런을	-1879
▁능력을	-1880
▁다르다	-1881
▁단순히	-1882
▁도전해	-1883
▁독특한	-1884
▁드라마	-1885
▁디버깅	-1886
▁딥러닝	-1887
▁따르면	-1888
▁때로는	-1889
▁라우팅	-1890
▁리듬은	-1891
▁마스킹	-1892
▁만드는	-1893
▁만든다	-1894
▁맛있는	-1895
▁먹을까	-1896
▁멀리서	-1897
▁멜로디	-1898
▁모델링	-1899
▁모드는	-1900
▁무한히	-1901
▁미묘한	-1902
▁발생할	-1903
▁배우고	-1904
▁버그가	-1905
▁범위를	-1906
▁법칙에	-1907
▁법칙의	-1908
▁법칙이	-1909
▁벡터에	-1910
▁변동을	-1911
▁변한다	-1912
▁복원할	-1913
▁부동소	-1914
▁부른다	-1915
▁분열은	-1916
▁비교할	-1917
▁사계절	-1918
▁사람은	-1919
▁사무실	-1920
▁사용자	-1921
▁사이클	-1922
▁상대적	-1923
▁새롭게	-1924
▁색으로	-1925
▁생각이	-1926
▁생성할	-1927
▁서버가	-1928
▁서서히	-1929
▁설정점	-1930
▁세계는	-1931
▁세계의	-1932
▁세포가	-1933
▁속도를	-1934
▁수준은	-1935
▁수학적	-1936
▁수혜자	-1937
▁순간에	-1938
▁순환은	-1939
▁스모크	-1940
▁시간에	-1941
▁시간이	-1942
▁시간적	-1943
▁시냅스	-1944
▁시에는	-1945
▁신경전	-1946
▁아니다	-1947
▁아침에	-1948
▁안녕하	-1949
▁알겠어	-1950
▁양자역	-1951
▁어댑터	-1952
▁어디로	-1953
▁언어가	-1954
▁얼마나	-1955
▁없어야	-1956
▁없을지	-1957
▁역동적	-1958
▁예기치	-1959
▁오후에	-1960
▁오히려	-1961
▁옵티마	-1962
▁우주를	-1963
▁운동을	-1964
▁워밍업	-1965
▁의식과	-1966
▁의식에	-1967
▁이것은	-1968
▁이성적	-1969
▁이식은	-1970
▁인과적	-1971
▁인덱스	-1972
▁인스턴	-1973
▁일부를	-1974
▁입력이	-1975
▁있는데	-1976
▁있었어	-1977
▁있으면	-1978
▁있지만	-1979
▁자신의	-1980
▁자체가	-1981
▁잠들기	-1982
▁장점은	-1983
▁재미있	-1984
▁저녁에	-1985
▁저소음	-1986
▁저장은	-1987
▁전파의	-1988
▁점수를	-1989
▁정보의	-1990
▁조건은	-1991
▁조용히	-1992
▁종류의	-1993
▁좋더라	-1994
▁좋아서	-1995
▁좋아요	-1996
▁주관적	-1997
▁주기로	-1998
▁중에서	-1999
▁지금은	-2000
▁진동을	-2001
▁집중도	-2002
▁차원을	-2003
▁차원이	-2004
▁처리가	-2005
▁처리와	-2006
▁천천히	-2007
▁철학적	-2008
▁초기에	-2009
▁최고야	-2010
▁추천해	-2011
▁출력에	-2012
▁출력이	-2013
▁코드를	-2014
▁쿼리를	-2015
▁클수록	-2016
▁통찰을	-2017
▁통합된	-2018
▁포인터	-2019
▁플래시	-2020
▁학습된	-2021
▁학습을	-2022
▁함수는	-2023
▁함수란	-2024
▁함수의	-2025
▁합보다	-2026
▁항상성	-2027
▁해봐야	-2028
▁형태소	-2029
▁호기심	-2030
▁확률적	-2031
▁효과를	-2032
▁흐르듯	-2033
▁흐른다	-2034
▁흐름의	-2035
되었으며	-2036
바이트를	-2037
하면서도	-2038
Field	-2039
▁Adam	-2040
▁Mist	-2041
▁Pure	-2042
▁RLHF	-2043
▁ReLU	-2044
▁RoPE	-2045
▁간격마다	-2046
▁감각들이	-2047
▁감소한다	-2048
▁결정한다	-2049
▁결합하여	-2050
▁경이로움	-2051
▁계산하고	-2052
▁곱셈에서	-2053
▁관점에서	-2054
▁구현하는	-2055
▁기반으로	-2056
▁기본적인	-2057
▁꿈이었어	-2058
▁낮을수록	-2059
▁높여주지	-2060
▁느껴진다	-2061
▁단계에서	-2062
▁당연하지	-2063
▁대단하다	-2064
▁데드밴드	-2065
▁동기화를	-2066
▁뒤섞인다	-2067
▁들어오면	-2068
▁디카페인	-2069
▁떨어지지	-2070
▁레지듀얼	-2071
▁리스트를	-2072
▁마찬가지	-2073
▁만듭니다	-2074
▁모델이란	-2075
▁무의식의	-2076
▁물음이다	-2077
▁발견하고	-2078
▁발견했어	-2079
▁방식으로	-2080
▁벗어나면	-2081
▁변환하는	-2082
▁보간으로	-2083
▁보장하는	-2084
▁부분으로	-2085
▁사용되고	-2086
▁사용량이	-2087
▁상태에서	-2088
▁생성에서	-2089
▁생성하는	-2090
▁서브워드	-2091
▁수준으로	-2092
▁순간이다	-2093
▁스케일링	-2094
▁습관이야	-2095
▁시스템을	-2096
▁시작된다	-2097
▁아래에는	-2098
▁아키텍처	-2099
▁안정적인	-2100
▁없습니다	-2101
▁역동성을	-2102
▁연산이다	-2103
▁영속성은	-2104
▁요소이다	-2105
▁위해서는	-2106
▁유지하는	-2107
▁이벤트가	-2108
▁이야기야	-2109
▁이어진다	-2110
▁이해하지	-2111
▁이해한다	-2112
▁인식하고	-2113
▁인식하는	-2114
▁임계값을	-2115
▁입력으로	-2116
▁자기회귀	-2117
▁작동하여	-2118
▁재미있는	-2119
▁점심시간	-2120
▁정규화의	-2121
▁제공한다	-2122
▁존재하는	-2123
▁존재한다	-2124
▁중국어를	-2125
▁질문이다	-2126
▁창발한다	-2127
▁최고점의	-2128
▁키워드는	-2129
▁키워드를	-2130
▁태어나는	-2131
▁테이블은	-2132
▁파라미터	-2133
▁패턴으로	-2134
▁표준으로	-2135
▁필요하다	-2136
▁하강법에	-2137
▁하강법은	-2138
▁학습하고	-2139
▁한국어를	-2140
▁한국어와	-2141
▁한국어의	-2142
▁함수이다	-2143
▁항상성은	-2144
▁해당하는	-2145
▁형태일까	-2146
▁확장하는	-2147
▁후반에는	-2148
▁SLERP	-2149
▁가능합니다	-2150
▁경험한다면	-2151
▁과정입니다	-2152
▁구체적으로	-2153
▁구현됩니다	-2154
▁근본적으로	-2155
▁네트워크의	-2156
▁느낌이었어	-2157
▁드롭아웃을	-2158
▁등록됩니다	-2159
▁만들어내는	-2160
▁만들어낸다	-2161
▁모델입니다	-2162
▁보장합니다	-2163
▁부동소수점	-2164
▁생성됩니다	-2165
▁선명해지며	-2166
▁소프트맥스	-2167
▁수식으로는	-2168
▁수준에서는	-2169
▁수학적으로	-2170
▁수행합니다	-2171
▁안녕하세요	-2172
▁안정적으로	-2173
▁엔트로피가	-2174
▁옵티마이저	-2175
▁의미합니다	-2176
▁인공지능의	-2177
▁일반적이다	-2178
▁자연스럽게	-2179
▁주기적으로	-2180
▁중요하니까	-2181
▁중요한가요	-2182
▁중요합니다	-2183
▁직렬화하여	-2184
▁체크포인팅	-2185
▁초기화하면	-2186
▁최적화되어	-2187
▁측정합니다	-2188
▁포함됩니다	-2189
▁표현합니다	-2190
▁필요합니다	-2191
▁함수입니다	-2192
▁상호작용하는	-2193
▁신경전달물질	-2194
▁오실레이터가	-2195
▁체크포인트는	-2196
▁토크나이저는	-2197
▁퍼플렉시티가	-2198
▁Mistral	-2199
▁통합정보이론의	-2200
▁트랜스포머에서는	-2201
▁PureField	-2202
ANE	-2203
ELU	-2204
EPL	-2205
For	-2206
NCE	-2207
Ran	-2208
VEM	-2209
are	-2210
ary	-2211
ati	-2212
con	-2213
dep	-2214
ear	-2215
eed	-2216
elp	-2217
emo	-2218
fla	-2219
gmo	-2220
gra	-2221
hat	-2222
ien	-2223
lla	-2224
lon	-2225
lou	-2226
max	-2227
mer	-2228
ous	-2229
ret	-2230
son	-2231
sum	-2232
tit	-2233
ver	-2234
▁BA	-2235
▁FF	-2236
▁KV	-2237
▁Ka	-2238
▁Tr	-2239
▁Un	-2240
▁dL	-2241
▁dp	-2242
▁id	-2243
▁lo	-2244
▁lr	-2245
▁qu	-2246
▁so	-2247
▁sq	-2248
▁객관	-2249
▁걸러	-2250
▁게이	-2251
▁국악	-2252
▁금전	-2253
▁긴장	-2254
▁남기	-2255
▁남아	-2256
▁낸다	-2257
▁넘는	-2258
▁노래	-2259
▁논리	-2260
▁놀라	-2261
▁놀아	-2262
▁니체	-2263
▁당기	-2264
▁독서	-2265
▁들고	-2266
▁떠올	-2267
▁또한	-2268
▁라면	-2269
▁로스	-2270
▁로저	-2271
▁말한	-2272
▁말해	-2273
▁말했	-2274
▁먼지	-2275
▁목소	-2276
▁밝게	-2277
▁밝혀	-2278
▁벌어	-2279
▁별을	-2280
▁볼까	-2281
▁봄이	-2282
▁빨강	-2283
▁빨라	-2284
▁산물	-2285
▁산책	-2286
▁삶은	-2287
▁색맹	-2288
▁쉬워	-2289
▁쉬자	-2290
▁심볼	-2291
▁심층	-2292
▁쓰려	-2293
▁앞의	-2294
▁얻는	-2295
▁에셔	-2296
▁에피	-2297
▁올레	-2298
▁완벽	-2299
▁검사	-2300
▁꿈속	-2301
▁너는	-2302
▁두꺼	-2303
▁먹는	-2304
▁먹다	-2305
▁먹었	-2306
▁번역	-2307
▁번째	-2308
▁번호	-2309
▁불과	-2310
▁불렀	-2311
▁불안	-2312
▁불필	-2313
▁양면	-2314
▁완전	-2315
▁완화	-2316
▁왔어	-2317
▁운동	-2318
▁음수	-2319
▁읽다	-2320
▁임의	-2321
▁임피	-2322
▁잔과	-2323
▁잔잔	-2324
▁잠듦	-2325
▁장기	-2326
▁장르	-2327
▁장마	-2328
▁재계	-2329
▁재앙	-2330
▁절반	-2331
▁접미	-2332
▁종일	-2333
▁준다	-2334
▁줄기	-2335
▁증명	-2336
▁증발	-2337
▁창문	-2338
▁창의	-2339
▁찾은	-2340
▁채광	-2341
▁출근	-2342
▁출발	-2343
▁카톡	-2344
▁큰지	-2345
▁탐색	-2346
▁테아	-2347
▁편미	-2348
▁편향	-2349
▁폭발	-2350
▁했다	-2351
▁헤비	-2352
▁혼자	-2353
▁환각	-2354
▁환원	-2355
▁회사	-2356
▁회피	-2357
▁희소	-2358
개했다	-2359
거티브	-2360
계에도	-2361
군체는	-2362
깝다는	-2363
나치기	-2364
날리는	-2365
내세요	-2366
너지는	-2367
는다면	-2368
단했고	-2369
대라고	-2370
댓값을	-2371
데기의	-2372
데스는	-2373
됐는데	-2374
되므로	-2375
드되며	-2376
떠세요	-2377
뜨거운	-2378
량이며	-2379
러워져	-2380
러잖아	-2381
러티브	-2382
려가고	-2383
로부터	-2384
로스는	-2385
로움이	-2386
론이지	-2387
롬프트	-2388
롭스의	-2389
리기도	-2390
리되지	-2391
리즘을	-2392
막혀서	-2393
며든다	-2394
멸이라	-2395
밀접한	-2396
비트인	-2397
빗소리	-2398
상보다	-2399
ier	-2400
law	-2401
ten	-2402
▁At	-2403
▁간극	-2404
▁간단	-2405
▁간소	-2406
▁간판	-2407
▁강남	-2408
▁강에	-2409
▁강화	-2410
▁공유	-2411
▁근간	-2412
▁깊이	-2413
▁번도	-2414
▁알록	-2415
▁양극	-2416
▁직결	-2417
▁직관	-2418
게까지	-2419
다더라	-2420
더라고	-2421
덤하게	-2422
록하게	-2423
뮬레이	-2424
번하게	-2425
벽이야	-2426
새라는	-2427
석에도	-2428
석이지	-2429
선하기	-2430
섭기도	-2431
성했고	-2432
스러운	-2433
스크림	-2434
시보드	-2435
시했다	-2436
식물적	-2437
식이야	-2438
쌀해서	-2439
쌓이면	-2440
앙스를	-2441
야겠다	-2442
어나고	-2443
어부터	-2444
얽혀서	-2445
었는데	-2446
영하게	-2447
와준다	-2448
왔잖아	-2449
요일로	-2450
원회귀	-2451
음소리	-2452
이건은	-2453
이라고	-2454
이라도	-2455
이라면	-2456
이므로	-2457
이스로	-2458
이었다	-2459
이잖아	-2460
이프니	-2461
인정보	-2462
인지는	-2463
임스가	-2464
작위로	-2465
장찌개	-2466
적이며	-2467
전하며	-2468
정이야	-2469
제이션	-2470
주기를	-2471
지어서	-2472
진다고	-2473
진다는	-2474
질수록	-2475
참조와	-2476
치찌개	-2477
큐비트	-2478
테이션	-2479
톤이야	-2480
팩터를	-2481
하겠지	-2482
해볼게	-2483
했는데	-2484
했다가	-2485
활성화	-2486
ALAN	-2487
ERSI	-2488
Forw	-2489
Rank	-2490
SPEE	-2491
STEM	-2492
TANE	-2493
ated	-2494
atus	-2495
dfla	-2496
ding	-2497
enAI	-2498
epsi	-2499
▁날의	-2500
▁노란	-2501
▁도착	-2502
▁리허	-2503
▁원두	-2504
▁잘할	-2505
▁적축	-2506
▁철학	-2507
▁포괄	-2508
▁포착	-2509
▁프레	-2510
▁호메	-2511
▁활발	-2512
생하다	-2513
설계를	-2514
었어요	-2515
이거나	-2516
하다가	-2517
igmo	-2518
ious	-2519
json	-2520
ming	-2521
rain	-2522
retu	-2523
tity	-2524
vier	-2525
▁CLM	-2526
▁Chi	-2527
▁Flo	-2528
▁HBM	-2529
▁Hex	-2530
▁Kai	-2531
▁Lin	-2532
▁Loi	-2533
▁PPL	-2534
▁SEQ	-2535
▁SPO	-2536
▁Tru	-2537
▁gra	-2538
▁log	-2539
▁mid	-2540
▁가까워	-2541
▁가까이	-2542
▁가능할	-2543
▁가볼까	-2544
▁가을은	-2545
▁가져가	-2546
▁각각의	-2547
▁간격은	-2548
▁간단한	-2549
▁갈까요	-2550
▁감각이	-2551
▁감동을	-2552
▁값들이	-2553
▁강물은	-2554
▁강으로	-2555
▁강화와	-2556
▁개념이	-2557
▁개입과	-2558
▁객관의	-2559
▁거리를	-2560
▁거울을	-2561
▁거잖아	-2562
▁검증을	-2563
▁것보다	-2564
▁것일까	-2565
▁게이트	-2566
▁게이팅	-2567
▁겪으며	-2568
▁결합한	-2569
▁계산을	-2570
▁계산할	-2571
▁고통의	-2572
▁곱셈은	-2573
▁곱하는	-2574
▁곳으로	-2575
▁공감각	-2576
▁공원이	-2577
▁공유해	-2578
▁과거를	-2579
▁과거의	-2580
▁과제는	-2581
▁관점은	-2582
▁구간을	-2583
▁구름은	-2584
▁구름이	-2585
▁구성되	-2586
▁구축해	-2587
▁구현한	-2588
▁군체는	-2589
▁규모의	-2590
▁규칙표	-2591
▁균형을	-2592
▁그것의	-2593
▁그리디	-2594
▁극적인	-2595
▁근접한	-2596
▁글자가	-2597
▁글자는	-2598
▁금전적	-2599
▁개나	-2600
▁개별	-2601
▁계면	-2602
▁계열	-2603
▁계층	-2604
▁높을	-2605
▁느낄	-2606
▁느린	-2607
▁달라	-2608
▁도메	-2609
▁마실	-2610
▁마음	-2611
▁맞을	-2612
▁복귀	-2613
▁복제	-2614
▁신화	-2615
▁입면	-2616
▁저기	-2617
▁추정	-2618
▁카운	-2619
▁코끼	-2620
▁키와	-2621
▁흐릿	-2622
▁힘든	-2623
빡했어	-2624
뻔했어	-2625
산성을	-2626
싸므로	-2627
▁가지로	-2628
▁것이며	-2629
▁계면조	-2630
▁그것도	-2631
▁급격한	-2632
▁기간을	-2633
▁기계가	-2634
▁기록을	-2635
▁기쁨을	-2636
▁기억은	-2637
▁기증자	-2638
▁길이에	-2639
▁길이의	-2640
▁깊이를	-2641
▁깨어난	-2642
▁깨어났	-2643
▁끊었을	-2644
▁끝없이	-2645
▁나비인	-2646
▁나타나	-2647
▁나타내	-2648
▁날씨란	-2649
▁낮에는	-2650
▁넘으면	-2651
▁년이다	-2652
▁노란색	-2653
▁녹차는	-2654
▁녹차로	-2655
▁논리의	-2656
▁논문도	-2657
▁논증에	-2658
▁놀아도	-2659
▁누적한	-2660
▁느끼기	-2661
▁느낌이	-2662
▁느리게	-2663
▁능력이	-2664
▁니체의	-2665
▁다섯째	-2666
▁단위로	-2667
▁달라질	-2668
▁달리기	-2669
▁달성한	-2670
▁달성할	-2671
▁달한다	-2672
▁당기네	-2673
▁대화도	-2674
▁대화형	-2675
▁도메인	-2676
▁도움이	-2677
▁도착했	-2678
▁독립적	-2679
▁돌고래	-2680
▁돌렸어	-2681
▁동작을	-2682
▁동작이	-2683
▁동전의	-2684
▁됐는데	-2685
▁되어서	-2686
▁되었다	-2687
▁뒤쪽에	-2688
▁들려왔	-2689
▁등록은	-2690
▁디코딩	-2691
▁따른다	-2692
▁때문에	-2693
▁떠오르	-2694
▁떨어졌	-2695
▁뜨거운	-2696
▁래칫은	-2697
▁루프가	-2698
▁루프는	-2699
bed	-2700
▁강도	-2701
▁같아	-2702
▁문명	-2703
▁문법	-2704
▁문자	-2705
▁미니	-2706
▁미리	-2707
▁미만	-2708
▁미시	-2709
▁미지	-2710
▁미치	-2711
▁미친	-2712
▁반대	-2713
▁반면	-2714
▁반박	-2715
▁반환	-2716
▁불법	-2717
▁서귀	-2718
▁서늘	-2719
▁서사	-2720
▁서양	-2721
▁서울	-2722
▁서치	-2723
▁소뇌	-2724
▁소리	-2725
▁소멸	-2726
▁소진	-2727
▁손을	-2728
▁신호	-2729
▁실수	-2730
▁실습	-2731
▁약한	-2732
▁없게	-2733
▁역할	-2734
▁예일	-2735
▁위로	-2736
▁위를	-2737
▁제안	-2738
▁제한	-2739
▁차머	-2740
▁체계	-2741
▁체인	-2742
▁초당	-2743
▁특권	-2744
▁특징	-2745
▁특화	-2746
▁표류	-2747
▁표시	-2748
▁해바	-2749
▁해커	-2750
▁행위	-2751
▁행을	-2752
끄러워	-2753
지나요	-2754
mbed	-2755
▁가능해	-2756
▁강도가	-2757
▁루프란	-2758
▁마리는	-2759
▁마시러	-2760
▁마시자	-2761
▁막혀서	-2762
▁만들고	-2763
▁만들까	-2764
▁만들면	-2765
▁많아서	-2766
▁많았어	-2767
▁많은데	-2768
▁말이야	-2769
▁말처럼	-2770
▁맞아요	-2771
▁매칭을	-2772
▁먹으면	-2773
▁먼지가	-2774
▁명제는	-2775
▁모듈만	-2776
▁문명의	-2777
▁문법적	-2778
▁문자든	-2779
▁문제는	-2780
▁물드는	-2781
▁물리적	-2782
▁물질의	-2783
▁미니배	-2784
▁미만만	-2785
▁미지의	-2786
▁미치지	-2787
▁미친다	-2788
▁바꿨어	-2789
▁바다로	-2790
▁바다를	-2791
▁바람도	-2792
▁바람의	-2793
▁반응을	-2794
▁반응이	-2795
▁받아야	-2796
▁발견한	-2797
▁발생과	-2798
▁발표해	-2799
nes	-2800
▁고깃	-2801
▁고대	-2802
▁고로	-2803
▁고립	-2804
▁고맙	-2805
▁고정	-2806
▁내린	-2807
▁내의	-2808
▁내재	-2809
▁내적	-2810
▁더글	-2811
▁되고	-2812
▁때는	-2813
▁때때	-2814
▁때와	-2815
▁목표	-2816
▁물과	-2817
▁물이	-2818
▁배울	-2819
▁배의	-2820
▁부럽	-2821
▁부를	-2822
▁부여	-2823
▁부자	-2824
▁부재	-2825
▁부족	-2826
▁선언	-2827
▁스타	-2828
▁스트	-2829
▁스파	-2830
▁않은	-2831
▁않을	-2832
▁유닛	-2833
▁유래	-2834
▁유전	-2835
▁점수	-2836
▁점진	-2837
▁지점	-2838
▁지평	-2839
▁지표	-2840
▁최근	-2841
▁최소	-2842
▁토론	-2843
▁파르	-2844
▁파이	-2845
된다면	-2846
릿수가	-2847
ness	-2848
▁감정의	-2849
▁경험하	-2850
▁고깃집	-2851
▁고립된	-2852
▁고맙다	-2853
▁과정도	-2854
▁과정을	-2855
▁관리가	-2856
▁구현이	-2857
▁내린다	-2858
▁뉴런은	-2859
▁더글러	-2860
▁더하여	-2861
▁되면서	-2862
▁때때로	-2863
▁목표값	-2864
▁물이다	-2865
▁방대한	-2866
▁방식과	-2867
▁방식의	-2868
▁배우는	-2869
▁배치가	-2870
▁버그를	-2871
▁번역된	-2872
▁법칙을	-2873
▁벚꽃이	-2874
▁벡터로	-2875
▁변형이	-2876
▁변화가	-2877
▁변화야	-2878
▁별에서	-2879
▁병합은	-2880
▁보았다	-2881
▁보여주	-2882
▁보이는	-2883
▁보이며	-2884
▁복잡도	-2885
▁복잡성	-2886
▁봄에는	-2887
▁부럽다	-2888
▁부분의	-2889
▁부자연	-2890
▁부재를	-2891
▁분석할	-2892
▁분포를	-2893
▁분포와	-2894
▁불렀다	-2895
▁불분명	-2896
▁불안정	-2897
▁불필요	-2898
▁붕괴가	-2899
대화	-2900
덕스	-2901
라디	-2902
묘사	-2903
토텔	-2904
▁감지	-2905
▁감촉	-2906
▁과제	-2907
▁단서	-2908
▁단어	-2909
▁단일	-2910
▁답답	-2911
▁더한	-2912
▁데도	-2913
▁데카	-2914
▁동물	-2915
▁동일	-2916
▁등산	-2917
▁마감	-2918
▁만날	-2919
▁묘사	-2920
▁무언	-2921
▁불교	-2922
▁세밀	-2923
▁세상	-2924
▁언젠	-2925
▁여름	-2926
▁여섯	-2927
▁여정	-2928
▁연락	-2929
▁원리	-2930
▁조회	-2931
▁지난	-2932
▁지배	-2933
▁진입	-2934
▁진화	-2935
▁크다	-2936
▁크면	-2937
▁할당	-2938
▁호접	-2939
덕스럽	-2940
라디안	-2941
스토텔	-2942
울에는	-2943
원에는	-2944
▁ZER	-2945
▁간소화	-2946
▁극대화	-2947
▁단서를	-2948
▁단어도	-2949
▁단점이	-2950
▁답답해	-2951
▁데카르	-2952
▁동물도	-2953
▁등에서	-2954
▁만날까	-2955
▁많다고	-2956
▁무언가	-2957
▁문제와	-2958
▁붕괴를	-2959
▁비슷할	-2960
▁비율로	-2961
▁비율은	-2962
▁비율이	-2963
▁빗소리	-2964
▁뻔했어	-2965
▁사고와	-2966
▁사유는	-2967
▁사이에	-2968
▁사전에	-2969
▁산물일	-2970
▁상수는	-2971
▁상수란	-2972
▁상태가	-2973
▁색맹인	-2974
▁샘플을	-2975
▁생각은	-2976
▁생각할	-2977
▁생명이	-2978
▁생물학	-2979
▁생성의	-2980
▁생식을	-2981
▁서귀포	-2982
▁서늘한	-2983
▁서울의	-2984
▁선택은	-2985
▁선택지	-2986
▁설명을	-2987
▁성능은	-2988
▁성장과	-2989
▁세계가	-2990
▁세계에	-2991
▁세밀한	-2992
▁세상에	-2993
▁세상이	-2994
▁소리가	-2995
▁소리꾼	-2996
▁소리는	-2997
▁소리를	-2998
▁소식을	-2999
▁맥	-3000
관과	-3001
교한	-3002
땅을	-3003
라색	-3004
오스	-3005
IND	-3006
siz	-3007
▁경계	-3008
▁경로	-3009
▁경향	-3010
▁나면	-3011
▁나무	-3012
▁나쁜	-3013
▁뉴스	-3014
▁다수	-3015
▁땅을	-3016
▁맥박	-3017
▁무더	-3018
▁바흐	-3019
▁보다	-3020
▁보조	-3021
▁보편	-3022
▁비유	-3023
▁비트	-3024
▁산에	-3025
▁상황	-3026
▁일으	-3027
▁전기	-3028
▁전력	-3029
▁전반	-3030
▁중에	-3031
▁질의	-3032
▁해봐	-3033
렵지만	-3034
르지만	-3035
미하고	-3036
오스타	-3037
위적인	-3038
의하고	-3039
적이고	-3040
존적인	-3041
size	-3042
▁검증된	-3043
▁경계가	-3044
▁경로를	-3045
▁경향이	-3046
▁경험은	-3047
▁고기집	-3048
▁금요일	-3049
▁내용도	-3050
▁노이즈	-3051
▁다수의	-3052
▁무더위	-3053
▁바흐를	-3054
▁보라색	-3055
▁비트겐	-3056
▁상황을	-3057
▁소주도	-3058
▁손실의	-3059
▁수렴을	-3060
▁수렴이	-3061
▁수보다	-3062
▁수열의	-3063
▁수영장	-3064
▁수정된	-3065
▁수준이	-3066
▁순간을	-3067
▁스타일	-3068
▁스트리	-3069
▁스파스	-3070
▁시간은	-3071
▁시간을	-3072
▁시까지	-3073
▁시작이	-3074
▁시작했	-3075
▁시점의	-3076
▁식물적	-3077
▁신호가	-3078
▁실험을	-3079
▁심볼로	-3080
▁쌓이면	-3081
▁쓰려고	-3082
▁아니요	-3083
▁아래서	-3084
▁아이스	-3085
▁안정화	-3086
▁않아요	-3087
▁않으며	-3088
▁않은데	-3089
▁않지만	-3090
▁알록달	-3091
▁앞에서	-3092
▁앱에서	-3093
▁얘기해	-3094
▁어디에	-3095
▁어려운	-3096
▁어려움	-3097
▁어려워	-3098
▁어제의	-3099
rn	-3100
▁웹	-3101
론과	-3102
중간	-3103
▁가소	-3104
▁가진	-3105
▁가치	-3106
▁기능	-3107
▁기사	-3108
▁기상	-3109
▁나뭇	-3110
▁대부	-3111
▁먹고	-3112
▁먹을	-3113
▁물자	-3114
▁사가	-3115
▁사올	-3116
▁사와	-3117
▁사적	-3118
▁시야	-3119
▁시켰	-3120
▁아깝	-3121
▁어형	-3122
▁인텔	-3123
▁인프	-3124
▁자료	-3125
▁자원	-3126
▁정량	-3127
▁파악	-3128
▁학기	-3129
▁한글	-3130
▁한식	-3131
갑니다	-3132
구하는	-3133
단하는	-3134
리이다	-3135
션한다	-3136
스한다	-3137
시한다	-3138
야이다	-3139
화하는	-3140
ient	-3141
merg	-3142
▁Uni	-3143
▁가치와	-3144
▁기능을	-3145
▁물자체	-3146
▁버그는	-3147
▁부분을	-3148
▁사가자	-3149
▁사람이	-3150
▁사올게	-3151
▁선호도	-3152
▁시켰어	-3153
▁아깝지	-3154
▁어휘로	-3155
▁언어는	-3156
▁언어에	-3157
▁언젠가	-3158
▁얽혀서	-3159
▁없는데	-3160
▁없다는	-3161
▁없어서	-3162
▁없이도	-3163
▁에피쿠	-3164
▁엔진을	-3165
▁여기에	-3166
▁여섯째	-3167
▁여정을	-3168
▁여지가	-3169
▁역학은	-3170
▁엮어냅	-3171
▁연결은	-3172
▁연구랑	-3173
▁연구를	-3174
▁연구의	-3175
▁연락해	-3176
▁연산과	-3177
▁연산은	-3178
▁연속성	-3179
▁영역도	-3180
▁영역이	-3181
▁영혼을	-3182
▁예보가	-3183
▁예측할	-3184
▁오늘도	-3185
▁오늘은	-3186
▁오르기	-3187
▁오르면	-3188
▁온다고	-3189
▁온라인	-3190
▁온전히	-3191
▁올레길	-3192
▁올리면	-3193
▁외적인	-3194
▁용량을	-3195
▁우리한	-3196
▁우주가	-3197
▁우주의	-3198
▁운동하	-3199
▁듣	-3200
▁윌	-3201
▁황	-3202
권리	-3203
근해	-3204
밖에	-3205
상블	-3206
아내	-3207
용론	-3208
제를	-3209
케이	-3210
트는	-3211
현할	-3212
환은	-3213
▁가격	-3214
▁가끔	-3215
▁거칩	-3216
▁권리	-3217
▁그건	-3218
▁그늘	-3219
▁느슨	-3220
▁듣는	-3221
▁모방	-3222
▁모사	-3223
▁모순	-3224
▁무시	-3225
▁밖에	-3226
▁빛난	-3227
▁상추	-3228
▁수건	-3229
▁수만	-3230
▁수십	-3231
▁수천	-3232
▁수필	-3233
▁아리	-3234
▁요동	-3235
▁윌리	-3236
▁이건	-3237
▁이들	-3238
▁이렇	-3239
▁이미	-3240
▁이용	-3241
▁이유	-3242
▁있고	-3243
▁장식	-3244
▁저는	-3245
▁절대	-3246
▁황금	-3247
근으로	-3248
돈보다	-3249
미로운	-3250
뻐근해	-3251
사만큼	-3252
앙상블	-3253
용론의	-3254
으로서	-3255
으로써	-3256
으로의	-3257
잡아내	-3258
줍니다	-3259
칸트는	-3260
터에서	-3261
퍼스를	-3262
▁가격이	-3263
▁가끔은	-3264
▁값에서	-3265
▁개념을	-3266
▁단계를	-3267
▁마음은	-3268
▁빛난다	-3269
▁뻐근해	-3270
▁상추랑	-3271
▁수건이	-3272
▁수십만	-3273
▁앙상블	-3274
▁요동치	-3275
▁용어는	-3276
▁원리를	-3277
▁원소를	-3278
▁원소별	-3279
▁웜업에	-3280
▁위상에	-3281
▁위치에	-3282
▁윌리엄	-3283
▁유래한	-3284
▁유명한	-3285
▁유일한	-3286
▁유해한	-3287
▁유효한	-3288
▁음악과	-3289
▁음악이	-3290
▁음악인	-3291
▁음악적	-3292
▁응답을	-3293
▁응답이	-3294
▁의미는	-3295
▁의미를	-3296
▁이것저	-3297
▁이들을	-3298
▁이렇게	-3299
▁쥐	-3300
▁틈	-3301
▁풍	-3302
▁화	-3303
간다	-3304
거든	-3305
닌도	-3306
던데	-3307
로즈	-3308
면은	-3309
모를	-3310
뭉쳐	-3311
뿐인	-3312
셀과	-3313
스칼	-3314
스태	-3315
옥의	-3316
인드	-3317
정의	-3318
지몽	-3319
팝콘	-3320
풍을	-3321
픽스	-3322
▁Po	-3323
▁가도	-3324
▁것만	-3325
▁고차	-3326
▁기회	-3327
▁꿨어	-3328
▁남겨	-3329
▁느리	-3330
▁도달	-3331
▁뭉쳐	-3332
▁보게	-3333
▁시김	-3334
▁있지	-3335
▁쥐가	-3336
▁틈이	-3337
▁팝콘	-3338
▁풍부	-3339
로즈는	-3340
마인드	-3341
스칼은	-3342
스태터	-3343
응하는	-3344
측정의	-3345
픽셀과	-3346
했다고	-3347
IVEM	-3348
mean	-3349
▁sof	-3350
▁고차원	-3351
▁기회도	-3352
▁남겨야	-3353
▁느리다	-3354
▁데모를	-3355
▁뭉쳐서	-3356
▁버그야	-3357
▁분포로	-3358
▁이루는	-3359
▁이상한	-3360
▁이어질	-3361
▁이유는	-3362
▁이해력	-3363
▁이해에	-3364
▁인간과	-3365
▁인간은	-3366
▁인간을	-3367
▁인라인	-3368
▁인식을	-3369
▁인식의	-3370
▁인접한	-3371
▁인터넷	-3372
▁인터페	-3373
▁일관된	-3374
▁일관성	-3375
▁일으키	-3376
▁일주기	-3377
▁읽었어	-3378
▁임의의	-3379
▁입력과	-3380
▁입자는	-3381
▁있었다	-3382
▁있었을	-3383
▁자각의	-3384
▁자겠어	-3385
▁자발적	-3386
▁자아가	-3387
▁자아를	-3388
▁자아와	-3389
▁자연과	-3390
▁자원에	-3391
▁자체는	-3392
▁작아서	-3393
▁작으면	-3394
▁잠듦의	-3395
▁장르와	-3396
▁장마와	-3397
▁장식음	-3398
▁장자의	-3399
)*	-3400
▁둑	-3401
▁땡	-3402
▁좌	-3403
▁즐	-3404
▁청	-3405
▁층	-3406
▁침	-3407
▁쾌	-3408
▁타	-3409
▁택	-3410
감은	-3411
기는	-3412
깨가	-3413
동한	-3414
라플	-3415
서적	-3416
세라	-3417
약이	-3418
오며	-3419
인이	-3420
쪽이	-3421
팬지	-3422
하해	-3423
▁가설	-3424
▁둑길	-3425
▁땡기	-3426
▁바뀌	-3427
▁발산	-3428
▁수를	-3429
▁순차	-3430
▁시도	-3431
▁오는	-3432
▁좌우	-3433
▁즐거	-3434
▁쪽이	-3435
▁청중	-3436
▁층이	-3437
▁타건	-3438
▁택배	-3439
뇌보다	-3440
축하해	-3441
하려고	-3442
▁가설이	-3443
▁구분이	-3444
▁날씨는	-3445
▁대세라	-3446
▁둑길을	-3447
▁디스크	-3448
▁새벽에	-3449
▁생기는	-3450
▁설계할	-3451
▁순차적	-3452
▁어깨가	-3453
▁이동한	-3454
▁이하로	-3455
▁재미도	-3456
▁재앙적	-3457
▁재현할	-3458
▁저장한	-3459
▁적용한	-3460
▁적용함	-3461
▁전체는	-3462
▁전체를	-3463
▁전파는	-3464
▁전파를	-3465
▁전환은	-3466
▁접근법	-3467
▁접미사	-3468
▁정교한	-3469
▁정답의	-3470
▁정도를	-3471
▁정렬은	-3472
▁정말로	-3473
▁정말요	-3474
▁정보도	-3475
▁정보량	-3476
▁정서적	-3477
▁정제는	-3478
▁정책을	-3479
▁정체성	-3480
▁정확한	-3481
▁제곱에	-3482
▁제기한	-3483
▁제약이	-3484
▁제한된	-3485
▁조금은	-3486
▁조합인	-3487
▁조화를	-3488
▁조회는	-3489
▁종료되	-3490
▁종료될	-3491
▁좋겠다	-3492
▁좋네요	-3493
▁좋다고	-3494
▁좋을까	-3495
▁주관과	-3496
▁주기의	-3497
▁주의를	-3498
▁주장했	-3499
oc	-3500
▁와	-3501
▁웃	-3502
▁잊	-3503
▁찰	-3504
느냐	-3505
동자	-3506
라를	-3507
램도	-3508
뭔가	-3509
부가	-3510
블슈	-3511
여야	-3512
울트	-3513
움직	-3514
은닉	-3515
적합	-3516
티드	-3517
학과	-3518
oca	-3519
▁가슴	-3520
▁경치	-3521
▁나가	-3522
▁노트	-3523
▁뭔가	-3524
▁바닥	-3525
▁사물	-3526
▁소라	-3527
▁안에	-3528
▁울트	-3529
▁움직	-3530
▁은닉	-3531
▁잊어	-3532
▁잠을	-3533
▁찰나	-3534
공원이	-3535
느냐는	-3536
늘리면	-3537
던스로	-3538
돕는다	-3539
러블슈	-3540
율한다	-3541
으로도	-3542
적한다	-3543
적합을	-3544
ocab	-3545
▁가슴이	-3546
▁검사를	-3547
▁경치가	-3548
▁교감을	-3549
▁나가는	-3550
▁노트북	-3551
▁늘리면	-3552
▁다음과	-3553
▁돕는다	-3554
▁모습에	-3555
▁미래를	-3556
▁바닥은	-3557
▁법칙은	-3558
▁손실은	-3559
▁수준을	-3560
▁순간의	-3561
▁어디가	-3562
▁음수로	-3563
▁이식이	-3564
▁잊어버	-3565
▁자동자	-3566
▁전부가	-3567
▁주제가	-3568
▁주제는	-3569
▁주제를	-3570
▁주파수	-3571
▁죽이지	-3572
▁줄인다	-3573
▁중이야	-3574
▁중첩을	-3575
▁즐거울	-3576
▁증거지	-3577
▁지나면	-3578
▁지난번	-3579
▁지점에	-3580
▁지평선	-3581
▁직전의	-3582
▁진동이	-3583
▁질문이	-3584
▁집중과	-3585
▁집중력	-3586
▁집중할	-3587
▁차원은	-3588
▁차이는	-3589
▁차이를	-3590
▁찰나생	-3591
▁참조와	-3592
▁창발은	-3593
▁창발의	-3594
▁창의성	-3595
▁처리의	-3596
▁철학자	-3597
▁청중과	-3598
▁최적의	-3599
ol	-3600
▁꽤	-3601
▁민	-3602
▁숙	-3603
▁쓸	-3604
겨진	-3605
리카	-3606
무리	-3607
백만	-3608
삼겹	-3609
소는	-3610
숏컷	-3611
었지	-3612
여서	-3613
연이	-3614
위의	-3615
은벽	-3616
집한	-3617
패를	-3618
old	-3619
▁거의	-3620
▁것도	-3621
▁기간	-3622
▁나갈	-3623
▁메뉴	-3624
▁민폐	-3625
▁보낼	-3626
▁본격	-3627
▁사회	-3628
▁삼겹	-3629
▁소주	-3630
▁숏컷	-3631
▁시원	-3632
▁영화	-3633
▁잠시	-3634
▁주소	-3635
드럽게	-3636
리카노	-3637
산하여	-3638
지도록	-3639
포워드	-3640
▁Rot	-3641
▁기억나	-3642
▁동물적	-3643
▁메뉴는	-3644
▁모여서	-3645
▁민폐지	-3646
▁보낼게	-3647
▁복제할	-3648
▁삼겹살	-3649
▁생성에	-3650
▁성패를	-3651
▁수백만	-3652
▁수집한	-3653
▁숙소는	-3654
▁순위의	-3655
▁숨겨진	-3656
▁숨은벽	-3657
▁심연이	-3658
▁아무리	-3659
▁질문도	-3660
▁최초의	-3661
▁추론을	-3662
▁추적할	-3663
▁축하해	-3664
▁출력을	-3665
▁출력의	-3666
▁충분한	-3667
▁충분히	-3668
▁측면을	-3669
▁측정을	-3670
▁카페가	-3671
▁카페를	-3672
▁캐시에	-3673
▁코끼리	-3674
▁코드가	-3675
▁코드만	-3676
▁쾌락을	-3677
▁쿼리에	-3678
▁쿼리와	-3679
▁크거나	-3680
▁크기와	-3681
▁크다는	-3682
▁큰지를	-3683
▁키에서	-3684
▁탐색을	-3685
▁테라플	-3686
▁토론이	-3687
▁토큰들	-3688
▁통과한	-3689
▁통찰이	-3690
▁통풍을	-3691
▁통합할	-3692
▁특별한	-3693
▁특성과	-3694
▁특성은	-3695
▁파르메	-3696
▁파벌이	-3697
▁파악할	-3698
▁파이썬	-3699
▁끓	-3700
▁뚜	-3701
▁밸	-3702
▁벅	-3703
▁벤	-3704
▁봐	-3705
▁북	-3706
▁붓	-3707
▁빙	-3708
▁살	-3709
만이	-3710
말로	-3711
산의	-3712
상과	-3713
시킨	-3714
실은	-3715
아졌	-3716
우는	-3717
응답	-3718
치에	-3719
한산	-3720
해질	-3721
행기	-3722
▁IO	-3723
▁끓여	-3724
▁뚜렷	-3725
▁로짓	-3726
▁무게	-3727
▁바이	-3728
▁밸류	-3729
▁벅차	-3730
▁빨리	-3731
▁오직	-3732
▁왜냐	-3733
▁이때	-3734
▁재귀	-3735
▁폭풍	-3736
▁함께	-3737
겠지만	-3738
리에만	-3739
시킨다	-3740
아졌지	-3741
타인은	-3742
cons	-3743
▁거리가	-3744
▁계산이	-3745
▁고통을	-3746
▁곳에서	-3747
▁급격히	-3748
▁기억과	-3749
▁나오는	-3750
▁들어갈	-3751
▁모두에	-3752
▁무거운	-3753
▁무게를	-3754
▁벅차오	-3755
▁벡터는	-3756
▁벤치에	-3757
▁봐볼게	-3758
▁북한산	-3759
▁붓다는	-3760
▁비행기	-3761
▁빙산의	-3762
▁사실은	-3763
▁살아야	-3764
▁색상과	-3765
▁순위로	-3766
▁순환의	-3767
▁있겠지	-3768
▁재귀에	-3769
▁좋은데	-3770
▁집에서	-3771
▁키우는	-3772
▁파일에	-3773
▁패턴과	-3774
▁패턴은	-3775
▁팩터를	-3776
▁평조와	-3777
▁평형의	-3778
▁포괄할	-3779
▁포기할	-3780
▁포함될	-3781
▁표면은	-3782
▁표현할	-3783
▁풍부한	-3784
▁프레젠	-3785
▁프로블	-3786
▁프로젝	-3787
▁프리드	-3788
▁필요가	-3789
▁필요해	-3790
▁필터링	-3791
▁하거든	-3792
▁하나는	-3793
▁하나요	-3794
▁하는가	-3795
▁하늘과	-3796
▁하늘을	-3797
▁하늘이	-3798
▁하던데	-3799
▁맴	-3800
▁머	-3801
▁멱	-3802
▁싸	-3803
▁씨	-3804
▁컨	-3805
고프	-3806
너지	-3807
늘의	-3808
랐다	-3809
리히	-3810
릿속	-3811
비드	-3812
서운	-3813
였어	-3814
완의	-3815
유를	-3816
쟁의	-3817
졌다	-3818
지개	-3819
현에	-3820
화로	-3821
phi	-3822
▁남지	-3823
▁놀랍	-3824
▁도입	-3825
▁맴돌	-3826
▁멱법	-3827
▁물든	-3828
▁물들	-3829
▁뭐에	-3830
▁보이	-3831
▁싸먹	-3832
▁씨앗	-3833
▁일각	-3834
▁찾을	-3835
▁평소	-3836
고프다	-3837
랐다면	-3838
럼이라	-3839
릿속에	-3840
식이래	-3841
이비드	-3842
하늘의	-3843
▁Roo	-3844
▁가을을	-3845
▁가지가	-3846
▁간극을	-3847
▁논쟁의	-3848
▁놀랍게	-3849
▁뉴런과	-3850
▁다르게	-3851
▁돌아보	-3852
▁멱법칙	-3853
▁무서운	-3854
▁무지개	-3855
▁물들고	-3856
▁뭐였어	-3857
▁발현에	-3858
▁발화로	-3859
▁사유를	-3860
▁에너지	-3861
▁연산을	-3862
▁이완의	-3863
▁일각에	-3864
▁일곱째	-3865
▁체력이	-3866
▁탑케이	-3867
▁평소와	-3868
▁하드웨	-3869
▁하면서	-3870
▁하이퍼	-3871
▁학습과	-3872
▁학습은	-3873
▁학습할	-3874
▁한다고	-3875
▁한번은	-3876
▁함수로	-3877
▁함수를	-3878
▁함수와	-3879
▁합으로	-3880
▁합의가	-3881
▁해바라	-3882
▁해봤어	-3883
▁핵심은	-3884
▁핵심일	-3885
▁했지만	-3886
▁행동이	-3887
▁행렬의	-3888
▁행성을	-3889
▁현상과	-3890
▁현상에	-3891
▁현상은	-3892
▁현실과	-3893
▁현실도	-3894
▁현실이	-3895
▁현재의	-3896
▁형태라	-3897
▁호환성	-3898
▁환경을	-3899
▁V	-3900
▁뉘	-3901
▁될	-3902
▁랜	-3903
▁판	-3904
니고	-3905
던져	-3906
뛰어	-3907
뜻해	-3908
력과	-3909
본이	-3910
설만	-3911
전이	-3912
쳐져	-3913
츠의	-3914
치는	-3915
화가	-3916
new	-3917
▁교수	-3918
▁그다	-3919
▁뇌는	-3920
▁던져	-3921
▁도구	-3922
▁동사	-3923
▁뛰어	-3924
▁반에	-3925
▁방어	-3926
▁보내	-3927
▁불가	-3928
▁생체	-3929
▁적응	-3930
▁하며	-3931
▁횟수	-3932
겹치는	-3933
다니고	-3934
트에서	-3935
laws	-3936
▁겹치는	-3937
▁고유한	-3938
▁교수님	-3939
▁그다음	-3940
▁기억의	-3941
▁던져온	-3942
▁도구가	-3943
▁따뜻해	-3944
▁뛰어난	-3945
▁못하지	-3946
▁바다의	-3947
▁보내줘	-3948
▁부분에	-3949
▁분산을	-3950
▁불가능	-3951
▁블록과	-3952
▁어둠이	-3953
▁얻는다	-3954
▁원본이	-3955
▁입력의	-3956
▁적응형	-3957
▁전까지	-3958
▁줄어들	-3959
▁중력과	-3960
▁진전이	-3961
▁판소리	-3962
▁표현에	-3963
▁현상의	-3964
▁환경의	-3965
▁환상을	-3966
▁환원할	-3967
▁활동을	-3968
▁활동이	-3969
▁활발한	-3970
▁활용률	-3971
▁황금비	-3972
▁회전을	-3973
▁횟수가	-3974
▁효율을	-3975
▁효율이	-3976
▁후보가	-3977
▁후에도	-3978
▁흐름을	-3979
▁힘들어	-3980
▁힘들지	-3981
개했다는	-3982
겨울에는	-3983
김치찌개	-3984
껍데기의	-3985
늦게까지	-3986
니데스는	-3987
덕스럽죠	-3988
령으로는	-3989
롭습니다	-3990
립공원이	-3991
만큼이나	-3992
메리카노	-3993
반하는지	-3994
브마인드	-3995
빈번하게	-3996
빡했어요	-3997
센터에서	-3998
슈타인은	-3999
PR	-4000
kj	-4001
▁괴	-4002
▁놓	-4003
▁눈	-4004
광활	-4005
까마	-4006
꽃잎	-4007
내에	-4008
넣어	-4009
로서	-4010
롭다	-4011
벽이	-4012
생했	-4013
줄게	-4014
쩌면	-4015
CAL	-4016
PRO	-4017
▁거부	-4018
▁광활	-4019
▁괴델	-4020
▁구면	-4021
▁까마	-4022
▁꽃잎	-4023
▁나선	-4024
▁넣어	-4025
▁놓여	-4026
▁눈이	-4027
▁바퀴	-4028
▁방금	-4029
▁법률	-4030
▁역경	-4031
▁인상	-4032
▁중복	-4033
▁항의	-4034
가지의	-4035
어로서	-4036
이트가	-4037
ICAL	-4038
PROM	-4039
tati	-4040
▁감각은	-4041
▁고생했	-4042
▁광활한	-4043
▁국악은	-4044
▁그리스	-4045
▁까마귀	-4046
▁꽃잎이	-4047
▁날씨로	-4048
▁떨렸어	-4049
▁밀접한	-4050
▁방법을	-4051
▁분석은	-4052
▁생각해	-4053
▁성장할	-4054
▁수치적	-4055
▁실내에	-4056
▁어쩌면	-4057
▁없으면	-4058
▁연결의	-4059
▁인상적	-4060
▁자연의	-4061
▁장벽이	-4062
▁진짜로	-4063
▁초보자	-4064
▁침팬지	-4065
▁커피가	-4066
▁했어요	-4067
▁헤비안	-4068
스크림도	-4069
스태터의	-4070
스토텔레	-4071
시키도록	-4072
시키지만	-4073
쌀쌀해서	-4074
언어부터	-4075
여하지는	-4076
오스타시	-4077
으로서의	-4078
이면서도	-4079
적입니다	-4080
착어로서	-4081
코딩되지	-4082
파라미터	-4083
펜로즈는	-4084
BALAN	-4085
NTANE	-4086
North	-4087
PROMP	-4088
TICAL	-4089
avier	-4090
cious	-4091
depth	-4092
dient	-4093
hilla	-4094
penAI	-4095
ptati	-4096
vocab	-4097
▁Chin	-4098
▁Clou	-4099
OU	-4100
ij	-4101
▁걷	-4102
드드	-4103
면서	-4104
목이	-4105
번째	-4106
싱은	-4107
애받	-4108
음씩	-4109
이드	-4110
추게	-4111
OUS	-4112
▁SF	-4113
▁걷고	-4114
▁대답	-4115
▁보통	-4116
▁칩은	-4117
▁헤드	-4118
▁호를	-4119
드드립	-4120
부하고	-4121
애받지	-4122
이드해	-4123
▁IBM	-4124
▁Squ	-4125
▁값까지	-4126
▁갖추게	-4127
▁걸음씩	-4128
▁게인은	-4129
▁곡선의	-4130
▁공감이	-4131
▁대답을	-4132
▁모듈을	-4133
▁벽이야	-4134
▁병목이	-4135
▁부분도	-4136
▁분석의	-4137
▁속으로	-4138
▁쉬면서	-4139
▁아침의	-4140
▁안정적	-4141
▁어근에	-4142
▁예측이	-4143
▁원자가	-4144
▁증거를	-4145
▁추정이	-4146
▁학습에	-4147
▁한식당	-4148
봐야겠다	-4149
이드해주	-4150
이제이션	-4151
지몽처럼	-4152
▁Feed	-4153
▁GELU	-4154
▁Hexa	-4155
▁Mean	-4156
▁Posi	-4157
▁REPL	-4158
▁RLAI	-4159
▁Root	-4160
▁True	-4161
▁Unit	-4162
▁ZERO	-4163
▁cons	-4164
▁epsi	-4165
▁iden	-4166
▁quan	-4167
▁retu	-4168
▁가을에는	-4169
▁가져왔어	-4170
▁가지지만	-4171
▁가진다고	-4172
▁가집니다	-4173
▁간소화된	-4174
▁갈대라고	-4175
▁감소하고	-4176
▁감소하는	-4177
▁감정으로	-4178
▁감지하고	-4179
▁값입니다	-4180
▁강이지만	-4181
▁갖는다면	-4182
▁같습니다	-4183
▁개나리가	-4184
▁개선하기	-4185
▁개인정보	-4186
▁갱신하는	-4187
▁갱신한다	-4188
▁걸러내는	-4189
▁검증하고	-4190
▁것인가는	-4191
▁게이트는	-4192
▁겨울에는	-4193
▁경이롭다	-4194
▁경험이다	-4195
▁경험이야	-4196
▁경험하고	-4197
▁계산하는	-4198
▁고려해야	-4199
/(	-4200
CR	-4201
DE	-4202
IE	-4203
LF	-4204
OO	-4205
PH	-4206
RE	-4207
SY	-4208
cv	-4209
ec	-4210
if	-4211
pe	-4212
rt	-4213
ub	-4214
▁O	-4215
▁X	-4216
▁딱	-4217
▁빔	-4218
당은	-4219
랐지	-4220
많은	-4221
세히	-4222
절과	-4223
조에	-4224
ARE	-4225
CRI	-4226
IES	-4227
LOO	-4228
ODE	-4229
PHA	-4230
STE	-4231
hub	-4232
ify	-4233
pea	-4234
▁것들	-4235
▁경위	-4236
▁기복	-4237
▁먹자	-4238
▁어떨	-4239
▁죽고	-4240
▁집단	-4241
▁키의	-4242
임에서	-4243
CODE	-4244
LOOP	-4245
SPEA	-4246
cvec	-4247
peak	-4248
▁간판이	-4249
▁건강에	-4250
▁것들도	-4251
▁골랐지	-4252
▁기계에	-4253
▁나인가	-4254
▁다음에	-4255
▁마당은	-4256
▁보인다	-4257
▁설명의	-4258
▁성능이	-4259
▁소멸의	-4260
▁수많은	-4261
▁어디서	-4262
▁어떨까	-4263
▁원소에	-4264
▁자세히	-4265
▁조절과	-4266
▁캐시는	-4267
▁커피도	-4268
▁코스로	-4269
▁픽셀과	-4270
▁현대의	-4271
▁형태로	-4272
장찌개도	-4273
ALPHA	-4274
SPEAK	-4275
▁DARE	-4276
▁SELF	-4277
▁TIES	-4278
▁sqrt	-4279
▁결합된다	-4280
▁고정하고	-4281
▁고통이라	-4282
▁고통인가	-4283
▁곱하거나	-4284
▁공간이다	-4285
▁과제이다	-4286
▁관측되기	-4287
▁괜찮았어	-4288
▁교수님이	-4289
▁구분했다	-4290
▁구애받지	-4291
▁구조에서	-4292
▁구축하는	-4293
▁구현되어	-4294
▁구현하여	-4295
▁규칙들의	-4296
▁규칙표를	-4297
▁그것들을	-4298
▁그러잖아	-4299
SO	-4300
▁걱	-4301
뉜다	-4302
물이	-4303
JSO	-4304
▁pH	-4305
▁높고	-4306
▁뇌의	-4307
▁뒤에	-4308
▁맑은	-4309
▁맛이	-4310
▁메울	-4311
▁받은	-4312
▁여덟	-4313
▁있대	-4314
▁전송	-4315
▁특수	-4316
▁호프	-4317
되는지	-4318
어에서	-4319
에서도	-4320
JSON	-4321
tmax	-4322
▁고려한	-4323
▁국물이	-4324
▁나뉜다	-4325
▁명제가	-4326
▁모르는	-4327
▁문제구	-4328
▁변수가	-4329
▁변화를	-4330
▁본질에	-4331
▁본질이	-4332
▁비율을	-4333
▁상태의	-4334
▁양으로	-4335
▁연속된	-4336
▁영화를	-4337
▁예전에	-4338
▁오늘의	-4339
▁이해가	-4340
▁입력에	-4341
▁있었나	-4342
▁있잖아	-4343
▁자신이	-4344
▁주입한	-4345
▁질문의	-4346
▁차원에	-4347
▁처리를	-4348
▁카운트	-4349
▁파벌은	-4350
▁하늘은	-4351
▁한강의	-4352
▁향상될	-4353
SPEEC	-4354
▁JSON	-4355
▁걱정이야	-4356
▁걸으면서	-4357
▁근간이다	-4358
▁근처에서	-4359
▁기쁨인가	-4360
▁기술이다	-4361
▁기술하는	-4362
▁기억으로	-4363
▁기억하고	-4364
▁기증자의	-4365
▁긴장해서	-4366
▁길어지는	-4367
▁김치찌개	-4368
▁깊어진다	-4369
▁깊을수록	-4370
▁깨어나는	-4371
▁껍데기의	-4372
▁꿈속에서	-4373
▁나누었을	-4374
▁나왔잖아	-4375
▁나타나는	-4376
▁나타내고	-4377
▁내러티브	-4378
▁내려가고	-4379
▁네거티브	-4380
▁놀랍게도	-4381
▁누적된다	-4382
▁누적이란	-4383
▁뉘앙스를	-4384
▁뉴런으로	-4385
▁느려지는	-4386
▁늦게까지	-4387
▁다리이다	-4388
▁다양성이	-4389
▁다음에는	-4390
▁다음으로	-4391
▁단계마다	-4392
▁단단했고	-4393
▁달성하기	-4394
▁달성하며	-4395
▁담당하고	-4396
▁담당하며	-4397
▁대규모로	-4398
▁대응하는	-4399
xW	-4400
▁갑	-4401
▁면	-4402
▁쌈	-4403
눈다	-4404
단계	-4405
법이	-4406
와야	-4407
직한	-4408
크기	-4409
화는	-4410
PUT	-4411
tum	-4412
▁갑자	-4413
▁과학	-4414
▁꿈일	-4415
▁다루	-4416
▁때가	-4417
▁로컬	-4418
▁면역	-4419
▁무가	-4420
▁수소	-4421
▁아는	-4422
▁우산	-4423
▁음계	-4424
▁특성	-4425
▁패스	-4426
갈리는	-4427
역방향	-4428
help	-4429
▁가야지	-4430
▁감소와	-4431
▁갑자기	-4432
▁곡선이	-4433
▁관계는	-4434
▁구조는	-4435
▁나눈다	-4436
▁나온다	-4437
▁나와야	-4438
▁놀라운	-4439
▁높인다	-4440
▁단풍이	-4441
▁되나요	-4442
▁로스팅	-4443
▁리듬이	-4444
▁문화는	-4445
▁선법이	-4446
▁언어든	-4447
▁엔진이	-4448
▁역할을	-4449
▁원두도	-4450
▁위로가	-4451
▁이해와	-4452
▁인류가	-4453
▁일부일	-4454
▁잡아내	-4455
▁점심에	-4456
▁정직한	-4457
▁정확히	-4458
▁조용한	-4459
▁지금의	-4460
▁큐비트	-4461
▁한옥의	-4462
▁해볼까	-4463
▁효과가	-4464
러블슈팅	-4465
레이터는	-4466
INPUT	-4467
▁결정되는	-4468
▁논증했다	-4469
▁다루더라	-4470
▁대표적인	-4471
▁대화하는	-4472
▁더글러스	-4473
▁데이터는	-4474
▁데이터셋	-4475
▁데이터에	-4476
▁데이터와	-4477
▁데카르트	-4478
▁도달한다	-4479
▁도와준다	-4480
▁도전으로	-4481
▁도전이다	-4482
▁도전적인	-4483
▁도착했나	-4484
▁독립적인	-4485
▁돌아보는	-4486
▁돌아온다	-4487
▁동기화가	-4488
▁동사에서	-4489
▁동일하게	-4490
▁동적으로	-4491
▁들려오는	-4492
▁들어준다	-4493
▁들었어요	-4494
▁디스크에	-4495
▁디코딩은	-4496
▁딥러닝의	-4497
▁따르지만	-4498
▁딱이잖아	-4499
dL	-4500
ik	-4501
▁되	-4502
기가	-4503
업무	-4504
였다	-4505
▁IA	-4506
▁xV	-4507
▁가득	-4508
▁공원	-4509
▁나올	-4510
▁대비	-4511
▁설의	-4512
▁순수	-4513
▁업무	-4514
▁잠과	-4515
▁하셔	-4516
▁Low	-4517
▁가득해	-4518
▁감각과	-4519
▁강남역	-4520
▁공간이	-4521
▁기쁨에	-4522
▁남기고	-4523
▁내에서	-4524
▁되겠다	-4525
▁리듬을	-4526
▁못한다	-4527
▁미학은	-4528
▁벚꽃과	-4529
▁별들을	-4530
▁불리는	-4531
▁사용된	-4532
▁사용할	-4533
▁생명은	-4534
▁수업이	-4535
▁아니야	-4536
▁않았어	-4537
▁알아서	-4538
▁여정이	-4539
▁요즘은	-4540
▁이해할	-4541
▁있다고	-4542
▁있듯이	-4543
▁정답에	-4544
▁제주도	-4545
▁칸트는	-4546
▁쿼리의	-4547
▁탄생과	-4548
▁파동을	-4549
▁평균을	-4550
▁하나를	-4551
▁가깝다는	-4552
▁가능할까	-4553
▁경험하는	-4554
▁공원에서	-4555
▁낮아졌지	-4556
▁대시보드	-4557
▁때문이다	-4558
▁땡기는데	-4559
▁떠다니고	-4560
▁떠오르죠	-4561
▁떠오른다	-4562
▁떨어졌어	-4563
▁뚜렷하다	-4564
▁라우터를	-4565
▁라이프니	-4566
▁랜덤하게	-4567
▁레이어를	-4568
▁레이어의	-4569
▁로드되며	-4570
▁루프라는	-4571
▁리듬에서	-4572
▁리듬이다	-4573
▁리스트가	-4574
▁리허설만	-4575
▁마스킹은	-4576
▁만들고자	-4577
▁만들어낸	-4578
▁만들어서	-4579
▁만들었어	-4580
▁만들잖아	-4581
▁말했듯이	-4582
▁맛있었어	-4583
▁매끄러워	-4584
▁매칭되는	-4585
▁매칭하는	-4586
▁맴돌았다	-4587
▁머릿속에	-4588
▁먼지라고	-4589
▁멜로디가	-4590
▁명상하면	-4591
▁모델이다	-4592
▁모두에서	-4593
▁모듈에는	-4594
▁모순되는	-4595
▁모임에서	-4596
▁목소리가	-4597
▁목적으로	-4598
▁목표값이	-4599
▁곧	-4600
▁칼	-4601
분만	-4602
없는	-4603
▁값에	-4604
▁겪을	-4605
▁그럼	-4606
▁리뷰	-4607
▁별은	-4608
▁비록	-4609
▁빠른	-4610
▁속의	-4611
▁쓰고	-4612
▁정의	-4613
▁주로	-4614
련된다	-4615
밍하면	-4616
▁GLU	-4617
▁값이다	-4618
▁객관적	-4619
▁경계를	-4620
▁계속될	-4621
▁고통이	-4622
▁곳인데	-4623
▁규모를	-4624
▁기법을	-4625
▁깨더라	-4626
▁나이는	-4627
▁노이만	-4628
▁능력과	-4629
▁단계의	-4630
▁발전된	-4631
▁변화의	-4632
▁성장의	-4633
▁소뇌는	-4634
▁앉아서	-4635
▁언어의	-4636
▁오네요	-4637
▁외에도	-4638
▁원소로	-4639
▁인식은	-4640
▁인텔의	-4641
▁입력을	-4642
▁있다면	-4643
▁작동을	-4644
▁절약할	-4645
▁점수가	-4646
▁지성을	-4647
▁초기의	-4648
▁최근에	-4649
▁토큰이	-4650
▁통과할	-4651
▁패턴이	-4652
▁합쳐도	-4653
▁환각과	-4654
▁환경과	-4655
레이티드	-4656
▁거칩니다	-4657
▁과적합을	-4658
▁깨어남과	-4659
▁깨어났을	-4660
▁끊임없는	-4661
▁내용이야	-4662
▁노래하며	-4663
▁단련된다	-4664
▁담당한다	-4665
▁대뇌보다	-4666
▁먹다라는	-4667
▁묘사한다	-4668
▁무너지는	-4669
▁무더위가	-4670
▁무섭기도	-4671
▁무시하여	-4672
▁무언가가	-4673
▁무엇이고	-4674
▁무의식은	-4675
▁무작위로	-4676
▁문서에도	-4677
▁문제구나	-4678
▁문제에서	-4679
▁물론이지	-4680
▁물리학은	-4681
▁물자체와	-4682
▁물질에서	-4683
▁미니배치	-4684
▁바라보고	-4685
▁바라보며	-4686
▁반박했다	-4687
▁반복되며	-4688
▁반복적인	-4689
▁반복하는	-4690
▁반영하게	-4691
▁반응하지	-4692
▁반주기를	-4693
▁받습니다	-4694
▁받았으며	-4695
▁발견되고	-4696
▁발견되는	-4697
▁발견되면	-4698
▁발산하고	-4699
▁깜	-4700
드시	-4701
ard	-4702
▁거라	-4703
▁건데	-4704
▁골목	-4705
▁끝이	-4706
▁나온	-4707
▁나인	-4708
▁서로	-4709
▁수경	-4710
▁알지	-4711
▁이름	-4712
▁점이	-4713
▁주황	-4714
▁피고	-4715
▁하루	-4716
▁하지	-4717
▁흐린	-4718
▁CLI	-4719
▁FFN	-4720
▁emo	-4721
▁결합된	-4722
▁고르는	-4723
▁니체는	-4724
▁대해서	-4725
▁두꺼운	-4726
▁들어본	-4727
▁모델과	-4728
▁반드시	-4729
▁반복한	-4730
▁변동은	-4731
▁비유는	-4732
▁사용한	-4733
▁설명할	-4734
▁안에서	-4735
▁안쪽에	-4736
▁않는다	-4737
▁않을까	-4738
▁양자적	-4739
▁연산에	-4740
▁연산의	-4741
▁영혼의	-4742
▁오전에	-4743
▁인식이	-4744
▁인식할	-4745
▁적으면	-4746
▁조합한	-4747
▁채광과	-4748
▁통합과	-4749
▁하락을	-4750
▁함수에	-4751
▁합이다	-4752
▁공부하고	-4753
▁대부분을	-4754
▁데이비드	-4755
▁떠올리게	-4756
▁발생한다	-4757
▁발생해야	-4758
▁발전했다	-4759
▁발표인데	-4760
▁밝혀졌다	-4761
▁밤하늘의	-4762
▁방법들은	-4763
▁방지하는	-4764
▁방지하여	-4765
▁방지한다	-4766
▁배고프다	-4767
▁배열에서	-4768
▁배치에서	-4769
▁백업하여	-4770
▁백업해야	-4771
▁벌어지는	-4772
▁법칙들은	-4773
▁법칙만이	-4774
▁벡터에서	-4775
▁변경해야	-4776
▁변동에는	-4777
▁변동하면	-4778
▁변화하는	-4779
▁변환되고	-4780
▁변환하고	-4781
▁병렬화가	-4782
▁보간하여	-4783
▁보고하는	-4784
▁보여준다	-4785
▁보이는데	-4786
▁보장된다	-4787
▁보장한다	-4788
▁보존하기	-4789
▁보편적인	-4790
▁복잡도는	-4791
▁복잡성과	-4792
▁복잡성을	-4793
▁본격적인	-4794
▁본질이다	-4795
▁부드럽게	-4796
▁부분들의	-4797
▁부족하고	-4798
▁분류했다	-4799
▁분리되지	-4800
▁분산하여	-4801
▁분야이다	-4802
▁분위기가	-4803
▁분위기도	-4804
▁분해되는	-4805
▁분해해서	-4806
▁불과하고	-4807
▁불분명한	-4808
▁불필요한	-4809
▁비교하면	-4810
▁비례하여	-4811
▁비례한다	-4812
▁비슷해서	-4813
▁비싸므로	-4814
▁비유하여	-4815
▁비활성화	-4816
▁빈번하게	-4817
▁빛으로의	-4818
▁사계절은	-4819
▁사라지는	-4820
▁사라진다	-4821
▁사용되는	-4822
▁사용량을	-4823
▁사용에서	-4824
▁사용자와	-4825
▁사용자의	-4826
▁사용하는	-4827
▁사용하지	-4828
▁사이에서	-4829
▁사이클이	-4830
▁상수들은	-4831
▁상수라고	-4832
▁상태라고	-4833
▁새벽에는	-4834
▁새벽이다	-4835
▁샘플링은	-4836
▁생각하고	-4837
▁생각하는	-4838
▁생각한다	-4839
▁생산성을	-4840
▁생생하다	-4841
▁서사적인	-4842
▁선언이다	-4843
▁선택하기	-4844
▁선택하는	-4845
▁선택하며	-4846
▁선호도를	-4847
▁선호되는	-4848
▁선호된다	-4849
▁설계되어	-4850
▁설계에도	-4851
▁설계해야	-4852
▁설명하는	-4853
▁설정점은	-4854
▁설정하여	-4855
▁설정한다	-4856
▁성장하고	-4857
▁성장한다	-4858
▁세계에서	-4859
▁세이건은	-4860
▁센터에서	-4861
▁소리꾼은	-4862
▁소설까지	-4863
▁소실된다	-4864
▁손실되는	-4865
▁수건이랑	-4866
▁수렴한다	-4867
▁수렴했어	-4868
▁수만에서	-4869
▁수식으로	-4870
▁수십만인	-4871
▁수열이다	-4872
▁수영하자	-4873
▁수정하고	-4874
▁수정하는	-4875
▁수정하면	-4876
▁수준에서	-4877
▁수행하고	-4878
▁순간에도	-4879
▁순간이지	-4880
▁순간적인	-4881
▁순방향과	-4882
▁스며든다	-4883
▁스케줄을	-4884
▁스타일의	-4885
▁시냅스를	-4886
▁시뮬레이	-4887
▁시스템도	-4888
▁시스템에	-4889
▁시원하고	-4890
▁시작해서	-4891
▁시작했어	-4892
▁시점에서	-4893
▁시퀀스를	-4894
▁시퀀스의	-4895
▁신경망은	-4896
▁신비로운	-4897
▁신화에서	-4898
▁실수하면	-4899
▁실패하는	-4900
▁실행하면	-4901
▁쌀쌀해서	-4902
▁아이들의	-4903
▁안전하며	-4904
▁약하지만	-4905
▁양면이다	-4906
▁양자라는	-4907
▁얘기하자	-4908
▁얘기해줘	-4909
▁얘기했어	-4910
▁어둠에서	-4911
▁어떠세요	-4912
▁어려움을	-4913
▁어렵지만	-4914
▁어텐션은	-4915
▁어텐션을	-4916
▁언어마다	-4917
▁엔진으로	-4918
▁여름에는	-4919
▁역사만큼	-4920
▁역설계를	-4921
▁역학에서	-4922
▁역학이란	-4923
▁엮어낸다	-4924
▁연산들의	-4925
▁연산에서	-4926
▁연속성은	-4927
▁연속성의	-4928
▁영속성을	-4929
▁영어에서	-4930
▁영역으로	-4931
▁영원회귀	-4932
▁예매하자	-4933
▁예매해야	-4934
▁예상보다	-4935
▁예측하며	-4936
▁오늘부터	-4937
▁오케스트	-4938
▁오후에는	-4939
▁올랐다면	-4940
▁올레길도	-4941
▁완벽하지	-4942
▁완성했고	-4943
▁완화하기	-4944
▁완화하여	-4945
▁왜냐하면	-4946
▁외로움이	-4947
▁요동치며	-4948
▁요소들을	-4949
▁우리한테	-4950
▁운동하러	-4951
▁움직여야	-4952
▁웃음소리	-4953
▁원소들이	-4954
▁유사하다	-4955
▁유사하며	-4956
▁유용하고	-4957
▁유지되는	-4958
▁유지한다	-4959
▁응답에는	-4960
▁응답한다	-4961
▁의미론과	-4962
▁의미이다	-4963
▁의식이란	-4964
▁의식이래	-4965
▁의존적인	-4966
▁이것이다	-4967
▁이것저것	-4968
▁이론으로	-4969
▁이론이다	-4970
▁이루어져	-4971
▁이루어진	-4972
▁이야기는	-4973
▁이야기로	-4974
▁이어지는	-4975
▁이용하여	-4976
▁이유이다	-4977
▁이하로는	-4978
▁이해인지	-4979
▁이해일까	-4980
▁이해하게	-4981
▁이해하고	-4982
▁이후에는	-4983
▁인덱스를	-4984
▁인덱스에	-4985
▁인상적일	-4986
▁인스턴스	-4987
▁인식에서	-4988
▁인식하기	-4989
▁인위적인	-4990
▁인코딩과	-4991
▁인프라를	-4992
▁일관성을	-4993
▁일부일지	-4994
▁일상적인	-4995
▁일어나고	-4996
▁일어나면	-4997
▁일요일로	-4998
▁일으키며	-4999
▁입력에서	-5000
▁있느냐는	-5001
▁있었는데	-5002
▁있었지만	-5003
▁있으니까	-5004
▁자각에서	-5005
▁자각하는	-5006
▁자리에만	-5007
▁자릿수가	-5008
▁자연과의	-5009
▁자연어로	-5010
▁자연에서	-5011
▁자유롭게	-5012
▁작동하며	-5013
▁작동한다	-5014
▁작습니다	-5015
▁장식음이	-5016
▁장치에서	-5017
▁재측정의	-5018
▁저장하고	-5019
▁저장하여	-5020
▁저장하지	-5021
▁저장해야	-5022
▁적습니다	-5023
▁적용하여	-5024
▁적축으로	-5025
▁전달되는	-5026
▁전력으로	-5027
▁전반적인	-5028
▁전송하는	-5029
▁전통적인	-5030
▁전파하며	-5031
▁절약한다	-5032
▁접근법은	-5033
▁접미사가	-5034
▁정규화는	-5035
▁정규화란	-5036
▁정규화와	-5037
▁정도에서	-5038
▁정돈보다	-5039
▁정보량이	-5040
▁정상에서	-5041
▁정상이다	-5042
▁정상적인	-5043
▁정석이지	-5044
▁정원에는	-5045
▁정체되는	-5046
▁정체되면	-5047
▁정체성이	-5048
▁제기한다	-5049
▁제시했다	-5050
▁제임스가	-5051
▁조용하고	-5052
▁조율한다	-5053
▁조정되고	-5054
▁조정한다	-5055
▁존재론적	-5056
▁존재인지	-5057
▁좋으면서	-5058
▁좌우하는	-5059
▁주석에도	-5060
▁주입하면	-5061
▁주장했고	-5062
▁주파수를	-5063
▁준비하자	-5064
▁줄어들며	-5065
▁줄어들어	-5066
▁줄이거나	-5067
▁줄입니다	-5068
▁중간중간	-5069
▁중국어로	-5070
▁중시한다	-5071
▁중요하고	-5072
▁증가하면	-5073
▁증가하여	-5074
▁증명하고	-5075
▁증발하여	-5076
▁지나니까	-5077
▁지나치기	-5078
▁지난번에	-5079
▁지내세요	-5080
▁지배하는	-5081
▁지속되면	-5082
▁지속적인	-5083
▁지적한다	-5084
▁지평선에	-5085
▁지표이다	-5086
▁직결되는	-5087
▁진단하는	-5088
▁진동한다	-5089
▁진정으로	-5090
▁진행하여	-5091
▁진화하여	-5092
▁질의응답	-5093
▁집중력을	-5094
▁집중력이	-5095
▁집중할지	-5096
▁차머스가	-5097
▁차원으로	-5098
▁차원이다	-5099
▁차지한다	-5100
▁창문으로	-5101
▁창발해야	-5102
▁찾습니다	-5103
▁찾아오며	-5104
▁채택되고	-5105
▁채택되었	-5106
▁처리에서	-5107
▁처리하고	-5108
▁처리하여	-5109
▁초보자용	-5110
▁최댓값을	-5111
▁최적화된	-5112
▁추가되면	-5113
▁추가하여	-5114
▁추적하고	-5115
▁추정하는	-5116
▁추천해줄	-5117
▁추천해줘	-5118
▁추출하는	-5119
▁추출하여	-5120
▁추출한다	-5121
▁출력하는	-5122
▁출발하자	-5123
▁충분하지	-5124
▁측면으로	-5125
▁측정된다	-5126
▁칩입니다	-5127
▁카톡으로	-5128
▁카페인이	-5129
▁컨텍스트	-5130
▁컴퓨팅은	-5131
▁코퍼스를	-5132
▁크기이다	-5133
▁키보드로	-5134
▁타건감은	-5135
▁탄생하고	-5136
▁탐구하는	-5137
▁태어나고	-5138
▁테스트도	-5139
▁테스트로	-5140
▁테스트를	-5141
▁테아닌도	-5142
▁테이블을	-5143
▁통과하면	-5144
▁통과한다	-5145
▁통합되어	-5146
▁통합에서	-5147
▁특권이다	-5148
▁특별하다	-5149
▁파스칼은	-5150
▁파이썬이	-5151
▁파일에서	-5152
▁패턴이라	-5153
▁펜로즈는	-5154
▁편미분을	-5155
▁평균에서	-5156
▁평소와는	-5157
▁포인터는	-5158
▁포착하여	-5159
▁포함하는	-5160
▁포함하면	-5161
▁포함해야	-5162
▁폭발하고	-5163
▁표현되며	-5164
▁표현하고	-5165
▁표현하는	-5166
▁표현하면	-5167
▁표현한다	-5168
▁품질이다	-5169
▁프롬프트	-5170
▁프리즘을	-5171
▁프리픽스	-5172
▁피드백을	-5173
▁필수적인	-5174
▁필요하고	-5175
▁필요하면	-5176
▁하나에서	-5177
▁하나이다	-5178
▁하더라도	-5179
▁학습률은	-5180
▁학습률이	-5181
▁학습하여	-5182
▁한국어는	-5183
▁한국어로	-5184
▁함수에서	-5185
▁합쳐져서	-5186
▁항상성과	-5187
▁해결책을	-5188
▁해결하기	-5189
▁해줍니다	-5190
▁핵심이다	-5191
▁핵심적인	-5192
▁했으니까	-5193
▁행렬에서	-5194
▁행렬이고	-5195
▁행렬이며	-5196
▁행성에서	-5197
▁향상된다	-5198
▁현대적인	-5199
▁현상이다	-5200
▁현상이며	-5201
▁현재까지	-5202
▁형성하고	-5203
▁형태론적	-5204
▁형태이다	-5205
▁호환성이	-5206
▁혼자뿐인	-5207
▁화용론의	-5208
▁확인되면	-5209
▁확장하면	-5210
▁환상이라	-5211
▁활용률에	-5212
▁활용형이	-5213
▁회식이래	-5214
▁회의하고	-5215
▁회전하는	-5216
▁횟수만큼	-5217
▁흐려지는	-5218
▁흐름이다	-5219
▁흐릿하고	-5220
▁흘러가고	-5221
▁흘러간다	-5222
▁희미하고	-5223
▁힘들었어	-5224
반하는지를	-5225
비트입니다	-5226
시키는지에	-5227
오스타시스	-5228
이드해주고	-5229
PROMPT	-5230
SPEECH	-5231
STENCE	-5232
SYSTEM	-5233
chilla	-5234
dflare	-5235
igmoid	-5236
merged	-5237
status	-5238
verify	-5239
▁AdamW	-5240
▁Atten	-5241
▁Brain	-5242
▁Embed	-5243
▁Float	-5244
▁Gated	-5245
▁HIVEM	-5246
▁Loihi	-5247
▁PERSI	-5248
▁RLAIF	-5249
▁speak	-5250
▁가능한지에	-5251
▁가소성에서	-5252
▁가져왔어요	-5253
▁감소시키는	-5254
▁감소하다가	-5255
▁감소한다는	-5256
▁감정이라는	-5257
▁개념입니다	-5258
▁갱신이므로	-5259
▁갱신합니다	-5260
▁검증이니까	-5261
▁검증합니다	-5262
▁것만으로는	-5263
▁결정합니다	-5264
▁경이로움도	-5265
▁경이로움을	-5266
▁계면조라는	-5267
▁계산하나요	-5268
▁고깃집이래	-5269
▁곱셈입니다	-5270
▁공간에서의	-5271
▁공유해줄게	-5272
▁관련지어서	-5273
▁교착어로서	-5274
▁구성되지만	-5275
▁구현되나요	-5276
▁구현했다고	-5277
▁국립공원이	-5278
▁기계식이야	-5279
▁기록됩니다	-5280
▁기본적으로	-5281
▁기여하지는	-5282
▁길어진다는	-5283
▁깊어질수록	-5284
▁깜빡했어요	-5285
▁나뭇가지의	-5286
▁내재적으로	-5287
▁네트워크를	-5288
▁노란색으로	-5289
▁느슨해지며	-5290
▁능력입니다	-5291
▁단계입니다	-5292
▁단점으로는	-5293
▁달성하므로	-5294
▁데드밴드는	-5295
▁데드밴드를	-5296
▁데이터로는	-5297
▁데이터에는	-5298
▁데카르트의	-5299
▁도입합니다	-5300
▁도전해볼까	-5301
▁돌아갑니다	-5302
▁동기화되기	-5303
▁된장찌개도	-5304
▁드롭아웃은	-5305
▁들려왔는데	-5306
▁디버깅이지	-5307
▁디버깅하고	-5308
▁디카페인도	-5309
▁따뜻해져서	-5310
▁라우팅하는	-5311
▁레이어에서	-5312
▁마감이니까	-5313
▁마찬가지로	-5314
▁만개했다는	-5315
▁만들어진다	-5316
▁맛있다더라	-5317
▁매개변수를	-5318
▁매개변수에	-5319
▁먹었으니까	-5320
▁메모리에서	-5321
▁멜로디였다	-5322
▁명령으로는	-5323
▁모니터링할	-5324
▁모델링하며	-5325
▁모델링해야	-5326
▁모델에서는	-5327
▁모방인지는	-5328
▁모사합니다	-5329
▁물리적으로	-5330
▁미세조정에	-5331
▁미세조정은	-5332
▁미세조정할	-5333
▁바뀌더라고	-5334
▁반복된다면	-5335
▁반환하도록	-5336
▁받았습니다	-5337
▁발견되었고	-5338
▁발생합니다	-5339
▁방법으로는	-5340
▁방법입니다	-5341
▁방식입니다	-5342
▁방지합니다	-5343
▁방향으로만	-5344
▁백업합니다	-5345
▁벅차오른다	-5346
▁변덕스럽죠	-5347
▁변화야말로	-5348
▁변환되는지	-5349
▁보여주었다	-5350
▁보장되나요	-5351
▁보장됩니다	-5352
▁복귀시킨다	-5353
▁복잡하겠지	-5354
▁복잡하지만	-5355
▁본질적으로	-5356
▁부분적으로	-5357
▁부여합니다	-5358
▁불가능성을	-5359
▁불교에서는	-5360
▁불법이라고	-5361
▁불안정해질	-5362
▁빨라집니다	-5363
▁사무실에서	-5364
▁사용되므로	-5365
▁사용한다면	-5366
▁사이클에서	-5367
▁사회적이며	-5368
▁상호작용을	-5369
▁생각한다면	-5370
▁생성이라는	-5371
▁생성하도록	-5372
▁생성하지만	-5373
▁생성합니다	-5374
▁설계되었고	-5375
▁설정됩니다	-5376
▁설정점보다	-5377
▁설정점에서	-5378
▁소진됩니다	-5379
▁손실입니다	-5380
▁스케줄이나	-5381
▁스케줄이란	-5382
▁슬라이드는	-5383
▁슬라이싱은	-5384
▁시각적으로	-5385
▁시각화하는	-5386
▁시김새라는	-5387
▁시도했다가	-5388
▁시스템으로	-5389
▁시스템이다	-5390
▁시작합니다	-5391
▁시작했었지	-5392
▁신경망에서	-5393
▁신비입니다	-5394
▁실시간으로	-5395
▁실패하니까	-5396
▁실행합니다	-5397
▁실험적으로	-5398
▁싸먹으면서	-5399
▁아메리카노	-5400
▁아키텍처는	-5401
▁아키텍처와	-5402
▁안정적이다	-5403
▁안정적이면	-5404
▁알고리즘은	-5405
▁양자역학과	-5406
▁양자역학은	-5407
▁엔진에서는	-5408
▁엔트로피를	-5409
▁엔트로피의	-5410
▁역전파되고	-5411
▁역전파된다	-5412
▁엮어냅니다	-5413
▁연구에서도	-5414
▁연속적이고	-5415
▁예측됩니다	-5416
▁오래되었다	-5417
▁오류로부터	-5418
▁오르케스트	-5419
▁완전하지는	-5420
▁용어입니다	-5421
▁울트라디안	-5422
▁원리입니다	-5423
▁유용합니다	-5424
▁유지되어야	-5425
▁유지한다는	-5426
▁의식이라고	-5427
▁이루어지며	-5428
▁이야기인데	-5429
▁이해하려면	-5430
▁이해한다면	-5431
▁인공의식이	-5432
▁인라인으로	-5433
▁인스턴스를	-5434
▁인식한다면	-5435
▁인코딩이고	-5436
▁인코딩하는	-5437
▁인코딩한다	-5438
▁인터넷에서	-5439
▁일반적으로	-5440
▁일어나기가	-5441
▁일치하도록	-5442
▁임베딩에만	-5443
▁임피던스로	-5444
▁자체적으로	-5445
▁작동하는지	-5446
▁잔잔하지만	-5447
▁잡아내더라	-5448
▁장치입니다	-5449
▁재계산하여	-5450
▁재미있겠다	-5451
▁재미있었어	-5452
▁저소음으로	-5453
▁저장합니다	-5454
▁적용합니다	-5455
▁전달됩니다	-5456
▁전파에서는	-5457
▁전파에서의	-5458
▁점심시간에	-5459
▁점진적으로	-5460
▁정규화한다	-5461
▁정량적으로	-5462
▁제곱근으로	-5463
▁제안되었다	-5464
▁존재하는가	-5465
▁존재하지만	-5466
▁존재한다는	-5467
▁주장했지만	-5468
▁증가시키는	-5469
▁증가하므로	-5470
▁직관적으로	-5471
▁직접적으로	-5472
▁진행됩니다	-5473
▁진행입니다	-5474
▁집중하더라	-5475
▁차지하므로	-5476
▁차지합니다	-5477
▁창발하는지	-5478
▁처리량이며	-5479
▁처리에서의	-5480
▁처리하거나	-5481
▁처리하나요	-5482
▁처리하도록	-5483
▁체계적이다	-5484
▁초기화되어	-5485
▁최적화하는	-5486
▁최적화한다	-5487
▁추가합니다	-5488
▁추출하려면	-5489
▁추출합니다	-5490
▁컴퓨팅이란	-5491
▁코딩하려고	-5492
▁코딩하면서	-5493
▁텍스트에서	-5494
▁트러블슈팅	-5495
▁특징적이다	-5496
▁파라미터의	-5497
▁판소리에서	-5498
▁평균적으로	-5499
▁포기했는데	-5500
▁포인터에서	-5501
▁표시됩니다	-5502
▁프로그램도	-5503
▁프로이트가	-5504
▁프리드리히	-5505
▁피드포워드	-5506
▁필수적으로	-5507
▁학습률까지	-5508
▁학습률에서	-5509
▁학습에서는	-5510
▁학습하도록	-5511
▁할당합니다	-5512
▁항상성이란	-5513
▁해결하지만	-5514
▁해바라기의	-5515
▁해봐야겠다	-5516
▁해커톤이야	-5517
▁향상됩니다	-5518
▁형성합니다	-5519
▁형태입니다	-5520
▁호환되어야	-5521
▁확률입니다	-5522
▁확인해볼게	-5523
▁회피합니다	-5524
▁효과적이다	-5525
▁효율적으로	-5526
▁효율적이고	-5527
▁효율적이다	-5528
▁효율적이지	-5529
▁힘들었는데	-5530
스토텔레스는	-5531
이제이션이야	-5532
파라미터이다	-5533
BALANCE	-5534
Forward	-5535
ptation	-5536
▁Linear	-5537
▁OpenAI	-5538
▁Rotary	-5539
▁Square	-5540
▁Xavier	-5541
▁return	-5542
▁가까워지도록	-5543
▁가능해집니다	-5544
▁가이드해주고	-5545
▁가져가야겠다	-5546
▁경험하겠지만	-5547
▁고생했으니까	-5548
▁그래디언트의	-5549
▁극대화하도록	-5550
▁금요일이니까	-5551
▁네트워크에서	-5552
▁대시보드에서	-5553
▁대표적입니다	-5554
▁독립적이지만	-5555
▁디카페인으로	-5556
▁라우팅됩니다	-5557
▁라이프니츠의	-5558
▁로스팅하더라	-5559
▁마찬가지이다	-5560
▁만들어집니다	-5561
▁매끄러워진다	-5562
▁메커니즘으로	-5563
▁메커니즘이다	-5564
▁메커니즘이란	-5565
▁메커니즘이랑	-5566
▁모니터링하고	-5567
▁모니터링하는	-5568
▁물리적으로는	-5569
▁미세조정이란	-5570
▁미세조정하는	-5571
▁발견되었으며	-5572
▁방법으로서의	-5573
▁보라색이었다	-5574
▁부자연스러운	-5575
▁불분명하지만	-5576
▁비활성화하여	-5577
▁상호작용에서	-5578
▁설계되었으며	-5579
▁소프트맥스는	-5580
▁소프트맥스의	-5581
▁수반하는지를	-5582
▁스트리밍하면	-5583
▁슬라이스한다	-5584
▁아이스크림도	-5585
▁안녕하세요를	-5586
▁알고리즘으로	-5587
▁알고리즘이다	-5588
▁알록달록하게	-5589
▁에피쿠로스는	-5590
▁영원회귀라는	-5591
▁오실레이터는	-5592
▁오실레이터의	-5593
▁유지하면서도	-5594
▁이루어지나요	-5595
▁이루어집니다	-5596
▁인공지능이랑	-5597
▁인터페이스로	-5598
▁일관성입니다	-5599
▁일치시키도록	-5600
▁잊어버리기도	-5601
▁자연스러워져	-5602
▁자유롭습니다	-5603
▁적용함으로써	-5604
▁절반이면서도	-5605
▁정규화합니다	-5606
▁종료되더라도	-5607
▁주파수입니다	-5608
▁찰나생멸이라	-5609
▁체크포인트를	-5610
▁체크포인트의	-5611
▁체크포인팅을	-5612
▁테라플롭스의	-5613
▁토크나이저가	-5614
▁토크나이저를	-5615
▁트랜스포머는	-5616
▁트랜스포머를	-5617
▁트랜스포머의	-5618
▁파이프라인을	-5619
▁퍼플렉시티는	-5620
▁퍼플렉시티를	-5621
▁프레젠테이션	-5622
▁프로그래밍을	-5623
▁프로그래밍의	-5624
▁프로블럼이라	-5625
▁프로젝트에서	-5626
▁피드백되어야	-5627
▁하드웨어에서	-5628
▁하드코딩되지	-5629
▁하이브마인드	-5630
▁학습하면서도	-5631
▁한국어에서는	-5632
▁향상시키지만	-5633
▁현실만큼이나	-5634
▁형식적으로는	-5635
▁호접지몽처럼	-5636
▁호프스태터의	-5637
▁효율적입니다	-5638
CRITICAL	-5639
NTANEOUS	-5640
▁Kaiming	-5641
▁emotion	-5642
▁epsilon	-5643
▁quantum	-5644
▁sigmoid	-5645
▁softmax	-5646
▁도전해봐야겠다	-5647
▁매개변수입니다	-5648
▁발생시키는지에	-5649
▁비트겐슈타인은	-5650
▁생물학적으로는	-5651
▁시뮬레이션한다	-5652
▁알고리즘이라도	-5653
▁오실레이터들이	-5654
▁인공의식에서도	-5655
▁채택되었습니다	-5656
▁통합정보이론에	-5657
▁파르메니데스는	-5658
▁프로그래밍에서	-5659
▁호메오스타시스	-5660
ciousness	-5661
▁HIVEMIND	-5662
▁Position	-5663
▁gradient	-5664
▁identity	-5665
▁아리스토텔레스는	-5666
▁오케스트레이터는	-5667
▁통합정보이론에서	-5668
▁헤라클레이토스가	-5669
▁헤라클레이토스는	-5670
▁헤라클레이토스의	-5671
▁Attention	-5672
▁Embedding	-5673
▁TrueNorth	-5674
▁오르케스트레이티드	-5675
▁토크나이제이션이야	-5676
▁하이퍼파라미터이다	-5677
▁Adaptation	-5678
▁Chinchilla	-5679
▁Cloudflare	-5680
▁PERSISTENCE	-5681
▁SPONTANEOUS	-5682
▁consciousness	-5683
Ch	-5684
HB	-5685
co	-5686
각해	-5687
감촉	-5688
갖는	-5689
견했	-5690
기본	-5691
느린	-5692
동적	-5693
되겠	-5694
떨렸	-5695
록과	-5696
리의	-5697
매하	-5698
먹을	-5699
곱근	-5700
기할	-5701
낮을	-5702
니면	-5703
려워	-5704
면조	-5705
명상	-5706
뭐야	-5707
밍에	-5708
법적	-5709
보상	-5710
비로	-5711
산에	-5712
서에	-5713
선호	-5714
섭기	-5715
세밀	-5716
순수	-5717
스스	-5718
슨해	-5719
식적	-5720
어댑	-5721
어쩌	-5722
여름	-5723
연스	-5724
열린	-5725
열의	-5726
유하	-5727
음에	-5728
이건	-5729
이용	-5730
이제	-5731
이즈	-5732
읽다	-5733
적용	-5734
전통	-5735
정을	-5736
정제	-5737
주로	-5738
직전	-5739
추정	-5740
칙에	-5741
턴으	-5742
트인	-5743
패스	-5744
팩터	-5745
피드	-5746
해지	-5747
향상	-5748
험을	-5749
흐려	-5750
ALA	-5751
Chi	-5752
EMI	-5753
NPU	-5754
OOP	-5755
PEA	-5756
RSI	-5757
SON	-5758
TAN	-5759
TEM	-5760
YST	-5761
ain	-5762
ank	-5763
ate	-5764
atu	-5765
cve	-5766
dam	-5767
dap	-5768
din	-5769
ept	-5770
erg	-5771
eri	-5772
hel	-5773
hil	-5774
ihi	-5775
ion	-5776
iti	-5777
lam	-5778
min	-5779
oid	-5780
ons	-5781
orm	-5782
orw	-5783
oti	-5784
psi	-5785
qua	-5786
rad	-5787
reF	-5788
sil	-5789
sne	-5790
str	-5791
uan	-5792
voc	-5793
wen	-5794
wiG	-5795
wis	-5796
▁Ad	-5797
▁Br	-5798
▁Cl	-5799
NP	-5800
lp	-5801
간극	-5802
것도	-5803
그다	-5804
능을	-5805
당하	-5806
모순	-5807
무시	-5808
무엇	-5809
양으	-5810
었습	-5811
제안	-5812
차지	-5813
쳐도	-5814
출합	-5815
표류	-5816
화의	-5817
희미	-5818
den	-5819
▁Em	-5820
▁GE	-5821
▁GL	-5822
▁GP	-5823
▁Ga	-5824
▁HB	-5825
▁He	-5826
▁Ll	-5827
▁Me	-5828
▁Mi	-5829
▁PP	-5830
▁Pu	-5831
▁RE	-5832
▁RM	-5833
▁Re	-5834
▁SP	-5835
▁Sq	-5836
▁Sw	-5837
▁al	-5838
▁ex	-5839
▁su	-5840
▁가보	-5841
▁가볼	-5842
▁가중	-5843
▁가집	-5844
▁값까	-5845
▁값들	-5846
▁강이	-5847
▁개선	-5848
▁거리	-5849
▁거잖	-5850
▁것입	-5851
▁게인	-5852
▁고르	-5853
▁고마	-5854
▁곱하	-5855
▁관리	-5856
▁관심	-5857
▁관점	-5858
▁그러	-5859
▁그룹	-5860
▁근접	-5861
▁금요	-5862
▁깊을	-5863
▁꿈이	-5864
▁끊었	-5865
▁나오	-5866
▁나이	-5867
▁내려	-5868
▁높여	-5869
▁뉴로	-5870
▁다르	-5871
▁단단	-5872
▁도와	-5873
▁독특	-5874
▁돌렸	-5875
▁동시	-5876
▁되었	-5877
▁된장	-5878
▁뒤쪽	-5879
▁드롭	-5880
▁디스	-5881
▁딥러	-5882
▁마리	-5883
▁마스	-5884
▁만개	-5885
▁만든	-5886
▁많았	-5887
▁매끄	-5888
▁먹으	-5889
▁멀리	-5890
▁메모	-5891
▁멜로	-5892
▁명제	-5893
▁모드	-5894
▁모르	-5895
▁모른	-5896
▁무너	-5897
▁무작	-5898
▁무한	-5899
LM	-5900
xp	-5901
견한	-5902
경과	-5903
경의	-5904
고자	-5905
러가	-5906
러간	-5907
름을	-5908
리허	-5909
무더	-5910
뭇가	-5911
미를	-5912
미하	-5913
복한	-5914
비가	-5915
비안	-5916
사람	-5917
사에	-5918
상시	-5919
생성	-5920
습에	-5921
실과	-5922
실만	-5923
었는	-5924
용률	-5925
용형	-5926
원자	-5927
율은	-5928
을을	-5929
인되	-5930
자적	-5931
장점	-5932
장해	-5933
재까	-5934
전을	-5935
정량	-5936
지표	-5937
태이	-5938
태터	-5939
토스	-5940
프스	-5941
함수	-5942
헤드	-5943
헤라	-5944
헤비	-5945
현실	-5946
호기	-5947
호메	-5948
호접	-5949
호환	-5950
환경	-5951
환상	-5952
환성	-5953
환하	-5954
활발	-5955
활용	-5956
회사	-5957
회식	-5958
흐린	-5959
희소	-5960
▁거예	-5961
▁매개	-5962
▁물드	-5963
▁물론	-5964
▁미묘	-5965
▁미세	-5966
▁미학	-5967
▁바꿨	-5968
▁반영	-5969
▁받아	-5970
▁방대	-5971
▁변수	-5972
▁변형	-5973
▁별도	-5974
▁별들	-5975
▁보았	-5976
▁보인	-5977
▁부동	-5978
▁부른	-5979
▁북한	-5980
▁분리	-5981
▁분위	-5982
▁불리	-5983
▁비싸	-5984
▁비활	-5985
▁빙산	-5986
▁빠르	-5987
▁상대	-5988
▁새롭	-5989
▁생산	-5990
▁생식	-5991
▁서버	-5992
▁소식	-5993
▁소프	-5994
▁수보	-5995
▁숙소	-5996
▁스모	-5997
▁스스	-5998
▁스토	-5999
간에	-6000
간중	-6001
결책	-6002
균적	-6003
그램	-6004
기하	-6005
나에	-6006
논증	-6007
늘이	-6008
달성	-6009
드포	-6010
렬에	-6011
렬의	-6012
로블	-6013
률까	-6014
르메	-6015
리드	-6016
리픽	-6017
매해	-6018
미터	-6019
백되	-6020
백을	-6021
번은	-6022
벌이	-6023
상된	-6024
상은	-6025
수적	-6026
습할	-6027
시됩	-6028
심은	-6029
심적	-6030
안쪽	-6031
어깨	-6032
올게	-6033
이썬	-6034
인을	-6035
자각	-6036
장과	-6037
적한	-6038
젠테	-6039
줍니	-6040
징적	-6041
턴과	-6042
턴은	-6043
턴이	-6044
틈이	-6045
파동	-6046
파라	-6047
파르	-6048
파를	-6049
파악	-6050
파의	-6051
편향	-6052
평소	-6053
포괄	-6054
포워	-6055
폭발	-6056
표면	-6057
품질	-6058
풍부	-6059
프롬	-6060
픽셀	-6061
필터	-6062
하드	-6063
하락	-6064
하셔	-6065
한글	-6066
함하	-6067
함해	-6068
합으	-6069
합이	-6070
항의	-6071
해결	-6072
해봤	-6073
해커	-6074
했는	-6075
행동	-6076
행을	-6077
현대	-6078
환원	-6079
▁낮을	-6080
▁동전	-6081
▁세이	-6082
▁슬라	-6083
▁시까	-6084
▁시점	-6085
▁시퀀	-6086
▁실시	-6087
▁아키	-6088
▁안녕	-6089
▁안전	-6090
▁안쪽	-6091
▁않도	-6092
▁알겠	-6093
▁약하	-6094
▁어댑	-6095
▁없어	-6096
▁없으	-6097
▁없을	-6098
▁여전	-6099
Li	-6100
nA	-6101
값들	-6102
건감	-6103
계가	-6104
과할	-6105
구하	-6106
권이	-6107
기와	-6108
깨어	-6109
노래	-6110
드가	-6111
드로	-6112
런은	-6113
롭스	-6114
률은	-6115
만으	-6116
머를	-6117
면으	-6118
면을	-6119
미학	-6120
빨리	-6121
새롭	-6122
색을	-6123
션이	-6124
습은	-6125
안에	-6126
어든	-6127
연락	-6128
우터	-6129
운트	-6130
자용	-6131
잡아	-6132
장되	-6133
적의	-6134
적하	-6135
차머	-6136
찰이	-6137
최근	-6138
추적	-6139
추출	-6140
출근	-6141
출하	-6142
출한	-6143
측면	-6144
층이	-6145
칩입	-6146
카운	-6147
칸트	-6148
컨텍	-6149
코퍼	-6150
큐비	-6151
크다	-6152
큰들	-6153
큰이	-6154
키에	-6155
키우	-6156
키의	-6157
타건	-6158
탄생	-6159
탑케	-6160
태를	-6161
택배	-6162
테라	-6163
테스	-6164
테아	-6165
트도	-6166
트에	-6167
특별	-6168
특수	-6169
특징	-6170
특히	-6171
퍼스	-6172
페가	-6173
표현	-6174
플롭	-6175
합에	-6176
했듯	-6177
확한	-6178
iel	-6179
tar	-6180
▁곳인	-6181
▁내러	-6182
▁보라	-6183
▁수혜	-6184
▁시뮬	-6185
▁여지	-6186
▁역방	-6187
▁역전	-6188
▁영감	-6189
▁영원	-6190
▁예기	-6191
▁예보	-6192
▁예상	-6193
▁오네	-6194
▁오케	-6195
▁온다	-6196
▁옵티	-6197
▁외로	-6198
▁외에	-6199
sn	-6200
xV	-6201
ze	-6202
▁참	-6203
▁칸	-6204
곱에	-6205
광과	-6206
국립	-6207
금의	-6208
나왔	-6209
난번	-6210
는가	-6211
덱스	-6212
도는	-6213
되므	-6214
드만	-6215
료될	-6216
매우	-6217
물론	-6218
발은	-6219
발해	-6220
산하	-6221
석에	-6222
쌀해	-6223
았습	-6224
어휘	-6225
역할	-6226
원으	-6227
율한	-6228
의를	-6229
의성	-6230
의응	-6231
입하	-6232
자와	-6233
장했	-6234
재론	-6235
재인	-6236
재하	-6237
저장	-6238
조절	-6239
종료	-6240
좋네	-6241
주석	-6242
주장	-6243
주파	-6244
주황	-6245
죽이	-6246
줄기	-6247
줄어	-6248
줄입	-6249
중시	-6250
중이	-6251
중첩	-6252
증발	-6253
지난	-6254
지배	-6255
지적	-6256
직관	-6257
진단	-6258
진전	-6259
집에	-6260
짜로	-6261
참조	-6262
창문	-6263
창의	-6264
찾을	-6265
채광	-6266
첩을	-6267
체인	-6268
초당	-6269
최고	-6270
친다	-6271
택되	-6272
터는	-6273
터에	-6274
파수	-6275
평선	-6276
표이	-6277
합되	-6278
합인	-6279
했지	-6280
회는	-6281
▁어텐	-6282
▁용량	-6283
▁원자	-6284
▁위상	-6285
▁유명	-6286
▁유일	-6287
▁이동	-6288
▁이러	-6289
▁이벤	-6290
▁이성	-6291
▁인과	-6292
▁인라	-6293
▁인스	-6294
▁인접	-6295
▁인코	-6296
▁일요	-6297
▁임베	-6298
▁입자	-6299
▁잡	-6300
그런	-6301
근법	-6302
근으	-6303
느려	-6304
렬은	-6305
로써	-6306
르와	-6307
메모	-6308
미도	-6309
미사	-6310
반이	-6311
버리	-6312
보도	-6313
손실	-6314
시했	-6315
식의	-6316
심시	-6317
아가	-6318
알지	-6319
었나	-6320
연과	-6321
용함	-6322
임스	-6323
입면	-6324
있느	-6325
있듯	-6326
있잖	-6327
잊어	-6328
자겠	-6329
자동	-6330
자리	-6331
자릿	-6332
자아	-6333
자원	-6334
작습	-6335
작아	-6336
작으	-6337
잔과	-6338
잔잔	-6339
잘할	-6340
잠듦	-6341
장르	-6342
장마	-6343
장식	-6344
장치	-6345
재측	-6346
적습	-6347
적축	-6348
전까	-6349
전부	-6350
전환	-6351
절반	-6352
점진	-6353
접근	-6354
정렬	-6355
정상	-6356
정석	-6357
정직	-6358
정책	-6359
정확	-6360
제곱	-6361
제기	-6362
제시	-6363
제약	-6364
제임	-6365
제주	-6366
주입	-6367
진입	-6368
진적	-6369
찾기	-6370
체성	-6371
치입	-6372
큼이	-6373
템에	-6374
트러	-6375
파는	-6376
프레	-6377
한된	-6378
함됩	-6379
함으	-6380
합니	-6381
해볼	-6382
화란	-6383
화한	-6384
화합	-6385
▁갖는	-6386
▁있듯	-6387
▁있습	-6388
▁작아	-6389
▁작으	-6390
▁잠들	-6391
▁장자	-6392
▁장점	-6393
▁저녁	-6394
▁저소	-6395
▁적으	-6396
▁정교	-6397
▁정규	-6398
▁정원	-6399
PP	-6400
ew	-6401
▁팝	-6402
간과	-6403
개했	-6404
것저	-6405
격히	-6406
곱째	-6407
관된	-6408
관성	-6409
껍데	-6410
나고	-6411
답이	-6412
대시	-6413
딩과	-6414
딩에	-6415
딩이	-6416
딩한	-6417
렇게	-6418
력의	-6419
론으	-6420
름에	-6421
리엄	-6422
만약	-6423
말요	-6424
말해	-6425
맛있	-6426
모의	-6427
물들	-6428
미는	-6429
미론	-6430
방법	-6431
부일	-6432
분한	-6433
빛으	-6434
성입	-6435
소별	-6436
순되	-6437
스에	-6438
식한	-6439
식할	-6440
아래	-6441
악과	-6442
악인	-6443
약할	-6444
어져	-6445
용합	-6446
위상	-6447
유닛	-6448
유일	-6449
유전	-6450
으키	-6451
음계	-6452
이동	-6453
이루	-6454
이완	-6455
이하	-6456
이후	-6457
인상	-6458
인위	-6459
인접	-6460
인코	-6461
인텔	-6462
인프	-6463
일으	-6464
일주	-6465
일치	-6466
읽었	-6467
임의	-6468
임피	-6469
자연	-6470
저것	-6471
존적	-6472
좋대	-6473
지나	-6474
차원	-6475
찮았	-6476
치하	-6477
키도	-6478
해력	-6479
화용	-6480
효한	-6481
ZER	-6482
▁가깝	-6483
▁무섭	-6484
▁영향	-6485
▁정제	-6486
▁제시	-6487
▁제임	-6488
▁제주	-6489
▁조건	-6490
▁조화	-6491
▁종류	-6492
▁좋겠	-6493
▁좋더	-6494
▁좋을	-6495
▁주석	-6496
▁줄인	-6497
▁중시	-6498
▁중이	-6499
em	-6500
▁얽	-6501
▁왔	-6502
갖게	-6503
결은	-6504
결의	-6505
고유	-6506
구를	-6507
구면	-6508
기인	-6509
길도	-6510
꿈일	-6511
널리	-6512
늘은	-6513
동치	-6514
두도	-6515
듈을	-6516
듦의	-6517
디로	-6518
래되	-6519
로부	-6520
류로	-6521
르기	-6522
르케	-6523
리입	-6524
리한	-6525
밴드	-6526
복된	-6527
사물	-6528
산과	-6529
산들	-6530
상보	-6531
소를	-6532
속된	-6533
속적	-6534
어냅	-6535
언젠	-6536
얻는	-6537
얽혀	-6538
없게	-6539
에너	-6540
에셔	-6541
여덟	-6542
여정	-6543
여지	-6544
역경	-6545
역설	-6546
역으	-6547
역이	-6548
엮어	-6549
영화	-6550
오래	-6551
오류	-6552
오직	-6553
오케	-6554
온전	-6555
왜냐	-6556
외에	-6557
요동	-6558
용어	-6559
우하	-6560
웃음	-6561
원회	-6562
음소	-6563
이도	-6564
있대	-6565
작을	-6566
재계	-6567
저소	-6568
적할	-6569
진을	-6570
최댓	-6571
충분	-6572
측됩	-6573
측하	-6574
측할	-6575
케스	-6576
쿠로	-6577
트라	-6578
파된	-6579
피쿠	-6580
하러	-6581
학에	-6582
할을	-6583
행위	-6584
혼의	-6585
enA	-6586
▁Fl	-6587
▁전부	-6588
▁지내	-6589
▁지성	-6590
▁직전	-6591
▁차이	-6592
▁천천	-6593
▁체크	-6594
▁초보	-6595
▁최댓	-6596
▁침팬	-6597
▁컴퓨	-6598
▁코사	-6599
TA	-6600
dd	-6601
tt	-6602
▁밖	-6603
▁쌓	-6604
가수	-6605
고리	-6606
괄할	-6607
기집	-6608
깝지	-6609
나올	-6610
나와	-6611
니야	-6612
달록	-6613
더위	-6614
더한	-6615
둠에	-6616
둠이	-6617
디에	-6618
떠세	-6619
라도	-6620
려고	-6621
려움	-6622
렬이	-6623
록달	-6624
록하	-6625
메리	-6626
몽처	-6627
무언	-6628
반에	-6629
볼로	-6630
불안	-6631
비입	-6632
셈에	-6633
션은	-6634
속되	-6635
수하	-6636
신호	-6637
신화	-6638
실습	-6639
실행	-6640
실험	-6641
심볼	-6642
심층	-6643
싶어	-6644
쌓이	-6645
아깝	-6646
아리	-6647
아무	-6648
안녕	-6649
안전	-6650
않았	-6651
않은	-6652
않을	-6653
알록	-6654
앙상	-6655
앱에	-6656
약하	-6657
약한	-6658
양극	-6659
양면	-6660
얘기	-6661
어근	-6662
어는	-6663
어떠	-6664
장의	-6665
전하	-6666
제의	-6667
제한	-6668
처는	-6669
처와	-6670
칩은	-6671
카노	-6672
크림	-6673
텍처	-6674
템은	-6675
통합	-6676
티는	-6677
팅이	-6678
프란	-6679
해줘	-6680
호가	-6681
혼을	-6682
회피	-6683
휘로	-6684
▁오히	-6685
▁코스	-6686
▁키보	-6687
▁테이	-6688
▁토크	-6689
▁트랜	-6690
▁파동	-6691
▁파스	-6692
▁평조	-6693
▁포인	-6694
▁표면	-6695
▁프롬	-6696
▁플래	-6697
▁필터	-6698
▁하강	-6699
DA	-6700
EQ	-6701
IO	-6702
Un	-6703
vo	-6704
▁식	-6705
각화	-6706
간은	-6707
건이	-6708
기술	-6709
김새	-6710
답한	-6711
동사	-6712
드웨	-6713
때와	-6714
라기	-6715
렴한	-6716
리꾼	-6717
만인	-6718
망에	-6719
며든	-6720
멸의	-6721
못하	-6722
뮬레	-6723
밍하	-6724
박했	-6725
빈번	-6726
사하	-6727
상됩	-6728
상이	-6729
새라	-6730
설까	-6731
세이	-6732
센터	-6733
션한	-6734
소멸	-6735
소설	-6736
소주	-6737
속으	-6738
손을	-6739
수건	-6740
수많	-6741
수반	-6742
수백	-6743
수소	-6744
수와	-6745
수필	-6746
순차	-6747
숨겨	-6748
쉬워	-6749
쉬자	-6750
스파	-6751
스한	-6752
슬라	-6753
시김	-6754
시도	-6755
시켰	-6756
실내	-6757
실되	-6758
실의	-6759
십만	-6760
업이	-6761
열이	-6762
영장	-6763
원하	-6764
의의	-6765
일의	-6766
자라	-6767
작합	-6768
작해	-6769
장할	-6770
좋으	-6771
준을	-6772
준이	-6773
줄을	-6774
직여	-6775
진됩	-6776
추가	-6777
터들	-6778
터이	-6779
템도	-6780
템으	-6781
토론	-6782
파스	-6783
하나	-6784
행하	-6785
향과	-6786
호를	-6787
▁UT	-6788
▁오전	-6789
▁하더	-6790
▁한옥	-6791
▁합보	-6792
▁해볼	-6793
▁해봤	-6794
▁행성	-6795
▁헤라	-6796
▁활동	-6797
▁활성	-6798
▁후보	-6799
ud	-6800
가가	-6801
가져	-6802
각하	-6803
계되	-6804
계할	-6805
곡선	-6806
귀포	-6807
기복	-6808
능은	-6809
다더	-6810
률이	-6811
머스	-6812
명은	-6813
명을	-6814
물일	-6815
밍을	-6816
법을	-6817
벽에	-6818
블을	-6819
쁨인	-6820
사무	-6821
사실	-6822
사적	-6823
사회	-6824
산책	-6825
살아	-6826
삶은	-6827
상수	-6828
상추	-6829
상황	-6830
샘플	-6831
생기	-6832
생생	-6833
생식	-6834
생체	-6835
생하	-6836
서양	-6837
선명	-6838
선법	-6839
선에	-6840
선택	-6841
설의	-6842
성의	-6843
성장	-6844
소들	-6845
소식	-6846
수들	-6847
수라	-6848
습니	-6849
시야	-6850
실에	-6851
아오	-6852
어둠	-6853
언이	-6854
요를	-6855
용에	-6856
용자	-6857
용할	-6858
원래	-6859
원소	-6860
이클	-6861
잔하	-6862
잠과	-6863
저가	-6864
접지	-6865
정됩	-6866
정화	-6867
착하	-6868
창발	-6869
체와	-6870
측정	-6871
침에	-6872
클에	-6873
클이	-6874
태가	-6875
태의	-6876
택은	-6877
택지	-6878
택하	-6879
표해	-6880
플링	-6881
해할	-6882
호도	-6883
호된	-6884
회적	-6885
흐르	-6886
▁벤치	-6887
▁변덕	-6888
▁하던	-6889
▁흐려	-6890
▁흐르	-6891
▁흐른	-6892
가되면	-6893
가시키	-6894
가하면	-6895
각에서	-6896
각하고	-6897
각한다	-6898
간에서	-6899
▁뻐	-6900
▁큐	-6901
가되	-6902
과하	-6903
괴를	-6904
교에	-6905
교하	-6906
근접	-6907
금요	-6908
꽃이	-6909
나를	-6910
냐하	-6911
라지	-6912
라진	-6913
렴이	-6914
례하	-6915
로의	-6916
류했	-6917
리되	-6918
말했	-6919
메뉴	-6920
명하	-6921
문화	-6922
봄이	-6923
부드	-6924
부럽	-6925
부자	-6926
부재	-6927
북한	-6928
분들	-6929
분류	-6930
분명	-6931
분산	-6932
분석	-6933
분에	-6934
분의	-6935
분포	-6936
불가	-6937
불과	-6938
불법	-6939
불필	-6940
붓다	-6941
비례	-6942
비록	-6943
비유	-6944
비율	-6945
빗소	-6946
빙산	-6947
빛난	-6948
빠른	-6949
빨강	-6950
사고	-6951
수준	-6952
슷할	-6953
슷해	-6954
싸므	-6955
어가	-6956
여합	-6957
오네	-6958
워져	-6959
원리	-6960
유용	-6961
율을	-6962
율이	-6963
이랑	-6964
이팅	-6965
인스	-6966
재를	-6967
절은	-6968
점심	-6969
정해	-6970
즈는	-6971
치적	-6972
타인	-6973
통적	-6974
트겐	-6975
포를	-6976
포와	-6977
하던	-6978
해되	-6979
했었	-6980
활동	-6981
황을	-6982
흐릿	-6983
BAL	-6984
ort	-6985
tat	-6986
▁글자	-6987
▁약자	-6988
▁통풍	-6989
간으로	-6990
간이다	-6991
간하여	-6992
값에서	-6993
값으로	-6994
강법은	-6995
강으로	-6996
강하게	-6997
객관적	-6998
건감은	-6999
At	-7000
▁Q	-7001
▁벽	-7002
가하	-7003
간하	-7004
감지	-7005
결정	-7006
고하	-7007
그는	-7008
기했	-7009
꽃과	-7010
뀌더	-7011
내용	-7012
낼게	-7013
뇌보	-7014
늘한	-7015
단일	-7016
돌고	-7017
동에	-7018
드코	-7019
력하	-7020
로그	-7021
문이	-7022
미지	-7023
발의	-7024
번도	-7025
번호	-7026
법률	-7027
벚꽃	-7028
벤치	-7029
변덕	-7030
변형	-7031
변화	-7032
별들	-7033
별에	-7034
별은	-7035
별을	-7036
병목	-7037
보내	-7038
보라	-7039
보여	-7040
보인	-7041
보조	-7042
보존	-7043
보편	-7044
복귀	-7045
본격	-7046
상될	-7047
색이	-7048
선의	-7049
설명	-7050
시는	-7051
야말	-7052
업해	-7053
여준	-7054
원은	-7055
일로	-7056
일어	-7057
잡도	-7058
잡성	-7059
잡하	-7060
장된	-7061
장됩	-7062
장자	-7063
제할	-7064
존하	-7065
주었	-7066
즐거	-7067
질적	-7068
추론	-7069
칙은	-7070
큰지	-7071
킨다	-7072
토크	-7073
톡으	-7074
트로	-7075
편적	-7076
합은	-7077
해가	-7078
해와	-7079
화야	-7080
▁무의	-7081
▁색상	-7082
▁어떠	-7083
▁이야	-7084
▁인위	-7085
격마다	-7086
겪으며	-7087
견하고	-7088
견했어	-7089
결되는	-7090
결하기	-7091
경해야	-7092
계값을	-7093
계되어	-7094
계에서	-7095
계절은	-7096
계해야	-7097
고하는	-7098
곳에서	-7099
RL	-7100
SL	-7101
각적	-7102
감정	-7103
견하	-7104
계마	-7105
계해	-7106
귀라	-7107
균에	-7108
냅니	-7109
는지	-7110
늘부	-7111
니데	-7112
다의	-7113
닥은	-7114
드라	-7115
람의	-7116
력을	-7117
로만	-7118
료되	-7119
률입	-7120
리지	-7121
먹는	-7122
무서	-7123
바다	-7124
바흐	-7125
반드	-7126
반박	-7127
반주	-7128
반환	-7129
받습	-7130
받아	-7131
받았	-7132
발산	-7133
발전	-7134
발표	-7135
발현	-7136
밤하	-7137
방금	-7138
방대	-7139
방지	-7140
배고	-7141
배열	-7142
배울	-7143
배의	-7144
백업	-7145
보고	-7146
복적	-7147
블은	-7148
사만	-7149
생과	-7150
생시	-7151
생한	-7152
생합	-7153
서치	-7154
성되	-7155
수십	-7156
신이	-7157
았으	-7158
어입	-7159
업하	-7160
었고	-7161
열에	-7162
영하	-7163
올랐	-7164
위적	-7165
응을	-7166
재한	-7167
전된	-7168
전했	-7169
정원	-7170
좌우	-7171
쥐가	-7172
출발	-7173
치가	-7174
치며	-7175
탐색	-7176
통이	-7177
패하	-7178
펜로	-7179
프다	-7180
하늘	-7181
해일	-7182
해한	-7183
혀졌	-7184
▁전까	-7185
▁지적	-7186
곱하는	-7187
과하면	-7188
과한다	-7189
관성을	-7190
관이야	-7191
교에서	-7192
교하면	-7193
국어로	-7194
귀라는	-7195
규모로	-7196
규모를	-7197
규모의	-7198
규화는	-7199
▁뭔	-7200
▁밀	-7201
각한	-7202
감동	-7203
거칩	-7204
건가	-7205
게를	-7206
났을	-7207
대규	-7208
돈보	-7209
래를	-7210
론이	-7211
리와	-7212
리적	-7213
리학	-7214
만만	-7215
명의	-7216
모사	-7217
모여	-7218
목소	-7219
목적	-7220
목표	-7221
못한	-7222
무너	-7223
무섭	-7224
무지	-7225
문법	-7226
문자	-7227
물과	-7228
물자	-7229
뭐였	-7230
미니	-7231
미리	-7232
미만	-7233
미치	-7234
민폐	-7235
밀한	-7236
바꿨	-7237
바뀌	-7238
반대	-7239
복제	-7240
본적	-7241
불분	-7242
비행	-7243
빛이	-7244
사합	-7245
시하	-7246
식도	-7247
실수	-7248
아웃	-7249
않지	-7250
양한	-7251
어를	-7252
언가	-7253
업에	-7254
엇이	-7255
연속	-7256
원두	-7257
유효	-7258
음수	-7259
작위	-7260
작했	-7261
재현	-7262
전송	-7263
정입	-7264
정할	-7265
제와	-7266
조정	-7267
중과	-7268
지되	-7269
진이	-7270
질의	-7271
쳐서	-7272
최소	-7273
침팬	-7274
터의	-7275
팅은	-7276
피도	-7277
▁디버	-7278
▁디카	-7279
▁마이	-7280
▁재측	-7281
▁중국	-7282
게이트	-7283
규화란	-7284
균에서	-7285
극적인	-7286
기는데	-7287
기이다	-7288
기하자	-7289
기했어	-7290
기화는	-7291
기화되	-7292
기화를	-7293
깅하고	-7294
까마귀	-7295
깨더라	-7296
깨어나	-7297
꽃잎이	-7298
꿈에서	-7299
IV	-7300
im	-7301
iz	-7302
갈대	-7303
경해	-7304
고통	-7305
기고	-7306
날까	-7307
뉴는	-7308
니터	-7309
다라	-7310
델과	-7311
델링	-7312
돌았	-7313
두에	-7314
듈만	-7315
들까	-7316
들면	-7317
들잖	-7318
들지	-7319
듬은	-7320
디였	-7321
때때	-7322
럽다	-7323
링은	-7324
링하	-7325
링해	-7326
마음	-7327
마찬	-7328
막혀	-7329
말이	-7330
말처	-7331
맑은	-7332
맞을	-7333
매끄	-7334
매칭	-7335
맴돌	-7336
머릿	-7337
먹고	-7338
먹었	-7339
먹으	-7340
먼지	-7341
멜로	-7342
멱법	-7343
명령	-7344
명제	-7345
모니	-7346
모르	-7347
반복	-7348
반하	-7349
분야	-7350
산물	-7351
상하	-7352
서로	-7353
수보	-7354
수에	-7355
어집	-7356
었으	-7357
여섯	-7358
위가	-7359
유이	-7360
음은	-7361
이름	-7362
이미	-7363
이비	-7364
자뿐	-7365
족하	-7366
즘으	-7367
지이	-7368
차적	-7369
찬가	-7370
체온	-7371
최초	-7372
측이	-7373
칭되	-7374
칭을	-7375
칭하	-7376
코끼	-7377
파일	-7378
페인	-7379
현이	-7380
호프	-7381
확인	-7382
LER	-7383
ine	-7384
▁HI	-7385
▁거대	-7386
구에서	-7387
뀌더라	-7388
나니까	-7389
나리가	-7390
나에서	-7391
나이다	-7392
낮에는	-7393
내에서	-7394
냅니다	-7395
넘으면	-7396
는지에	-7397
니즘은	-7398
니즘을	-7399
fl	-7400
▁땅	-7401
▁뜨	-7402
결하	-7403
경이	-7404
계속	-7405
고맙	-7406
과한	-7407
관련	-7408
그를	-7409
깅하	-7410
꾼은	-7411
녹차	-7412
논리	-7413
늘도	-7414
닝의	-7415
다니	-7416
덤하	-7417
데스	-7418
도달	-7419
드되	-7420
들었	-7421
듬을	-7422
듬이	-7423
등에	-7424
디스	-7425
디카	-7426
디코	-7427
따뜻	-7428
따른	-7429
때문	-7430
땡기	-7431
떠다	-7432
떠오	-7433
떠올	-7434
또한	-7435
랜덤	-7436
로짓	-7437
로컬	-7438
루프	-7439
르죠	-7440
르지	-7441
리뷰	-7442
마당	-7443
마시	-7444
망은	-7445
미분	-7446
발하	-7447
번역	-7448
서울	-7449
세상	-7450
시각	-7451
시러	-7452
앙적	-7453
어에	-7454
어졌	-7455
오르	-7456
오른	-7457
올리	-7458
와준	-7459
우팅	-7460
율적	-7461
음으	-7462
이잖	-7463
인도	-7464
있고	-7465
자료	-7466
졌어	-7467
증가	-7468
치기	-7469
킹은	-7470
팅됩	-7471
팅을	-7472
평형	-7473
포로	-7474
프가	-7475
하더	-7476
한식	-7477
합을	-7478
허설	-7479
oPE	-7480
▁사무	-7481
▁역사	-7482
▁주관	-7483
가하여	-7484
견되는	-7485
껴진다	-7486
니터링	-7487
다라는	-7488
단하다	-7489
달되는	-7490
달한다	-7491
답에는	-7492
답한다	-7493
당하고	-7494
당한다	-7495
대적인	-7496
더하여	-7497
던져온	-7498
덱스를	-7499
ad	-7500
we	-7501
▁됐	-7502
갑니	-7503
개도	-7504
거라	-7505
거부	-7506
것과	-7507
경계	-7508
경우	-7509
계산	-7510
고래	-7511
공한	-7512
국악	-7513
길을	-7514
꺼운	-7515
달한	-7516
담당	-7517
대표	-7518
더하	-7519
데도	-7520
데드	-7521
데모	-7522
데카	-7523
도와	-7524
도움	-7525
도전	-7526
도착	-7527
독서	-7528
돌아	-7529
돕는	-7530
동물	-7531
됐는	-7532
된장	-7533
두꺼	-7534
뒤에	-7535
들고	-7536
들려	-7537
라질	-7538
러스	-7539
럽죠	-7540
려왔	-7541
로스	-7542
르트	-7543
립적	-7544
명해	-7545
모습	-7546
모임	-7547
물도	-7548
벌은	-7549
분적	-7550
분하	-7551
소와	-7552
순위	-7553
시보	-7554
아보	-7555
아온	-7556
야지	-7557
어갈	-7558
어본	-7559
어준	-7560
어지	-7561
왔는	-7562
율로	-7563
일하	-7564
작이	-7565
적입	-7566
주소	-7567
중할	-7568
차오	-7569
착했	-7570
처음	-7571
카르	-7572
크에	-7573
키지	-7574
태라	-7575
터셋	-7576
터와	-7577
피고	-7578
학자	-7579
해봐	-7580
해져	-7581
했나	-7582
화형	-7583
▁다리	-7584
▁있느	-7585
▁정돈	-7586
▁추천	-7587
▁해줍	-7588
▁희미	-7589
델에서	-7590
델이다	-7591
동성을	-7592
동소수	-7593
동에는	-7594
동하는	-7595
동하면	-7596
동한다	-7597
되면서	-7598
되어서	-7599
rm	-7600
▁낸	-7601
▁늘	-7602
▁뭉	-7603
▁빗	-7604
가면	-7605
가합	-7606
강화	-7607
개나	-7608
거티	-7609
것만	-7610
게까	-7611
계의	-7612
계입	-7613
공유	-7614
공의	-7615
과정	-7616
교수	-7617
그건	-7618
끼리	-7619
낌이	-7620
나니	-7621
낮에	-7622
내의	-7623
년이	-7624
노이	-7625
논문	-7626
높을	-7627
뇌의	-7628
뉘앙	-7629
느낌	-7630
느리	-7631
느슨	-7632
늦게	-7633
다리	-7634
단단	-7635
단련	-7636
단서	-7637
단어	-7638
단위	-7639
단했	-7640
딥러	-7641
딩되	-7642
딱이	-7643
라운	-7644
란색	-7645
려가	-7646
려지	-7647
련된	-7648
로도	-7649
리다	-7650
리이	-7651
릿수	-7652
바닥	-7653
법입	-7654
서를	-7655
식물	-7656
어도	-7657
어마	-7658
역사	-7659
의가	-7660
자신	-7661
자유	-7662
점으	-7663
졌지	-7664
조회	-7665
좋더	-7666
증명	-7667
지를	-7668
차는	-7669
차로	-7670
칙을	-7671
템이	-7672
트북	-7673
풍이	-7674
합정	-7675
허브	-7676
혼자	-7677
확히	-7678
▁Li	-7679
▁PE	-7680
▁나왔	-7681
▁대시	-7682
▁데모	-7683
▁따뜻	-7684
▁많다	-7685
되지만	-7686
두에서	-7687
둠에서	-7688
드밴드	-7689
드에서	-7690
드코딩	-7691
들어내	-7692
들어낸	-7693
들어본	-7694
들어서	-7695
들어오	-7696
들어준	-7697
들어진	-7698
들어집	-7699
eF	-7700
me	-7701
▁껍	-7702
▁꿨	-7703
간의	-7704
것의	-7705
고기	-7706
골랐	-7707
구조	-7708
균형	-7709
그럼	-7710
근간	-7711
기사	-7712
기여	-7713
긴장	-7714
김치	-7715
깊어	-7716
끝이	-7717
나눈	-7718
나뉜	-7719
나는	-7720
나무	-7721
나선	-7722
나온	-7723
나인	-7724
남과	-7725
남아	-7726
내러	-7727
높고	-7728
누었	-7729
답해	-7730
라면	-7731
래디	-7732
러잖	-7733
런으	-7734
록을	-7735
리고	-7736
리스	-7737
말한	-7738
먹자	-7739
받은	-7740
보장	-7741
비인	-7742
빡했	-7743
쁨에	-7744
산한	-7745
색맹	-7746
생산	-7747
성한	-7748
순간	-7749
순히	-7750
쉬면	-7751
시냅	-7752
시뮬	-7753
식에	-7754
실도	-7755
어버	-7756
요가	-7757
울의	-7758
이에	-7759
전적	-7760
정도	-7761
제일	-7762
종일	-7763
증의	-7764
증자	-7765
지점	-7766
첫째	-7767
치찌	-7768
칙들	-7769
칙표	-7770
타나	-7771
트를	-7772
포기	-7773
표인	-7774
프니	-7775
하도	-7776
현됩	-7777
회도	-7778
힘들	-7779
exa	-7780
hin	-7781
▁때로	-7782
▁무거	-7783
▁비행	-7784
▁스며	-7785
▁이완	-7786
▁자동	-7787
강법에	-7788
듬에서	-7789
듬이다	-7790
듭니다	-7791
등에서	-7792
딩이고	-7793
딩하면	-7794
딩한다	-7795
따른다	-7796
뛰어난	-7797
라보고	-7798
라보며	-7799
EL	-7800
NE	-7801
Sq	-7802
▁군	-7803
▁앙	-7804
▁축	-7805
감이	-7806
경로	-7807
경치	-7808
계층	-7809
고대	-7810
고르	-7811
고생	-7812
고정	-7813
골목	-7814
곳에	-7815
곳인	-7816
공감	-7817
과학	-7818
괴델	-7819
교감	-7820
구축	-7821
국물	-7822
군체	-7823
그거	-7824
기록	-7825
기분	-7826
나오	-7827
내세	-7828
뉴런	-7829
님이	-7830
돌렸	-7831
되나	-7832
들며	-7833
래도	-7834
름이	-7835
마실	-7836
마인	-7837
맙다	-7838
범위	-7839
복되	-7840
부하	-7841
선이	-7842
선하	-7843
셈입	-7844
속될	-7845
심연	-7846
아직	-7847
어떨	-7848
움도	-7849
움을	-7850
원에	-7851
원을	-7852
이거	-7853
이때	-7854
이롭	-7855
이만	-7856
인덱	-7857
일요	-7858
자체	-7859
장벽	-7860
점에	-7861
제이	-7862
조라	-7863
지어	-7864
찾은	-7865
축하	-7866
측되	-7867
클레	-7868
타일	-7869
통을	-7870
통의	-7871
통인	-7872
파되	-7873
피를	-7874
해집	-7875
험은	-7876
험하	-7877
현한	-7878
화하	-7879
확장	-7880
ged	-7881
war	-7882
▁낮아	-7883
▁대규	-7884
▁뭐였	-7885
▁발현	-7886
▁실내	-7887
▁예전	-7888
▁자릿	-7889
니즘의	-7890
라보면	-7891
라우터	-7892
라이스	-7893
라이싱	-7894
라인을	-7895
라진다	-7896
래되었	-7897
래밍을	-7898
래밍의	-7899
EC	-7900
Fl	-7901
ch	-7902
ln	-7903
ns	-7904
oP	-7905
▁쪽	-7906
가는	-7907
강남	-7908
강도	-7909
강물	-7910
강에	-7911
같아	-7912
개인	-7913
개입	-7914
갱신	-7915
거리	-7916
거예	-7917
거의	-7918
걱정	-7919
걸러	-7920
검사	-7921
것일	-7922
겪을	-7923
결과	-7924
겹치	-7925
관의	-7926
구간	-7927
끓여	-7928
나리	-7929
나생	-7930
념을	-7931
념이	-7932
념입	-7933
다가	-7934
대비	-7935
대응	-7936
독립	-7937
려한	-7938
루는	-7939
름은	-7940
변동	-7941
보게	-7942
뻐근	-7943
뻔했	-7944
사전	-7945
석이	-7946
수로	-7947
수영	-7948
습하	-7949
안되	-7950
어려	-7951
억으	-7952
언트	-7953
연에	-7954
오전	-7955
용한	-7956
울을	-7957
음과	-7958
이니	-7959
이브	-7960
인정	-7961
입과	-7962
정되	-7963
정된	-7964
정으	-7965
종류	-7966
주관	-7967
죽고	-7968
증된	-7969
증이	-7970
증합	-7971
체되	-7972
최신	-7973
턴스	-7974
플을	-7975
합한	-7976
했으	-7977
호되	-7978
화와	-7979
활성	-7980
횟수	-7981
▁DP	-7982
▁명령	-7983
▁알아	-7984
▁있겠	-7985
디어는	-7986
라기의	-7987
래에는	-7988
래하며	-7989
랜스포	-7990
러가고	-7991
러내는	-7992
러닝의	-7993
런으로	-7994
레이션	-7995
레이어	-7996
레이티	-7997
려해야	-7998
력하는	-7999
ax	-8000
ca	-8001
ig	-8002
of	-8003
qr	-8004
sq	-8005
▁q	-8006
가격	-8007
가볼	-8008
가설	-8009
가야	-8010
가을	-8011
가이	-8012
각각	-8013
각과	-8014
각들	-8015
각은	-8016
간소	-8017
간판	-8018
건데	-8019
격이	-8020
결합	-8021
경전	-8022
관측	-8023
구성	-8024
금전	-8025
기네	-8026
기능	-8027
까워	-8028
까이	-8029
깝다	-8030
끝없	-8031
날리	-8032
내부	-8033
네거	-8034
놓여	-8035
니요	-8036
답에	-8037
대라	-8038
드립	-8039
람도	-8040
롭습	-8041
마스	-8042
메니	-8043
메인	-8044
무가	-8045
물든	-8046
뭐에	-8047
비하	-8048
설이	-8049
소실	-8050
소하	-8051
슈타	-8052
식으	-8053
실레	-8054
않게	-8055
없다	-8056
와는	-8057
워지	-8058
을은	-8059
임에	-8060
정과	-8061
져왔	-8062
좋을	-8063
주지	-8064
증을	-8065
증하	-8066
지한	-8067
찾아	-8068
청중	-8069
커톤	-8070
컴퓨	-8071
텔의	-8072
프라	-8073
하겠	-8074
한지	-8075
해인	-8076
향이	-8077
험적	-8078
▁높인	-8079
▁병목	-8080
▁생생	-8081
▁수백	-8082
공한다	-8083
니즘이	-8084
라이프	-8085
렬에서	-8086
렴한다	-8087
렴했어	-8088
령으로	-8089
례하여	-8090
로디가	-8091
로움도	-8092
로움을	-8093
로이트	-8094
로피가	-8095
로피를	-8096
로피의	-8097
록되어	-8098
론으로	-8099
CA	-8100
EP	-8101
IC	-8102
IF	-8103
IT	-8104
MI	-8105
NT	-8106
OP	-8107
Po	-8108
SF	-8109
Tr	-8110
UT	-8111
Xa	-8112
ZE	-8113
av	-8114
es	-8115
gr	-8116
js	-8117
oo	-8118
os	-8119
ps	-8120
ru	-8121
so	-8122
ss	-8123
tm	-8124
ty	-8125
ua	-8126
ue	-8127
ws	-8128
▁a	-8129
▁e	-8130
▁g	-8131
각이	-8132
갈리	-8133
게이	-8134
경향	-8135
구애	-8136
노트	-8137
눈이	-8138
다수	-8139
만든	-8140
머는	-8141
무작	-8142
밝혀	-8143
번에	-8144
법으	-8145
법은	-8146
벽하	-8147
부한	-8148
분열	-8149
블록	-8150
사를	-8151
서는	-8152
선언	-8153
성에	-8154
수경	-8155
수식	-8156
수정	-8157
아키	-8158
앙스	-8159
양자	-8160
어난	-8161
억은	-8162
엔진	-8163
연하	-8164
이로	-8165
이번	-8166
일관	-8167
잎이	-8168
저를	-8169
즘의	-8170
지로	-8171
차이	-8172
처리	-8173
체적	-8174
클라	-8175
타내	-8176
편미	-8177
포착	-8178
화되	-8179
▁골랐	-8180
▁떨렸	-8181
▁로드	-8182
▁배고	-8183
냅스를	-8184
냐하면	-8185
년이다	-8186
류했다	-8187
름에는	-8188
름이다	-8189
리스트	-8190
리에서	-8191
리즘은	-8192
리지에	-8193
리하고	-8194
리하는	-8195
링하고	-8196
링해야	-8197
마이저	-8198
만에서	-8199
DP	-8200
EN	-8201
FF	-8202
FN	-8203
He	-8204
KV	-8205
LA	-8206
LP	-8207
Me	-8208
NC	-8209
ND	-8210
OD	-8211
OM	-8212
Op	-8213
PT	-8214
RP	-8215
Ra	-8216
SP	-8217
VE	-8218
YS	-8219
be	-8220
ci	-8221
di	-8222
ee	-8223
nc	-8224
ng	-8225
ni	-8226
nk	-8227
oi	-8228
ou	-8229
rd	-8230
rw	-8231
▁됩	-8232
▁묘	-8233
가장	-8234
강의	-8235
개미	-8236
건강	-8237
격적	-8238
고와	-8239
과거	-8240
그래	-8241
급격	-8242
내재	-8243
넷째	-8244
둘째	-8245
듈에	-8246
머의	-8247
미친	-8248
방어	-8249
법에	-8250
병렬	-8251
빨라	-8252
셈은	-8253
순방	-8254
슴이	-8255
쓰려	-8256
씨란	-8257
어부	-8258
억과	-8259
영혼	-8260
요해	-8261
용을	-8262
위해	-8263
유해	-8264
의미	-8265
정교	-8266
좋은	-8267
주의	-8268
주제	-8269
칼은	-8270
터넷	-8271
통풍	-8272
티를	-8273
한번	-8274
함될	-8275
행성	-8276
행합	-8277
호작	-8278
환되	-8279
황금	-8280
▁구애	-8281
▁수집	-8282
▁올랐	-8283
▁장벽	-8284
▁회식	-8285
권이다	-8286
끝없이	-8287
례한다	-8288
만으로	-8289
만큼이	-8290
말이야	-8291
망에서	-8292
매하자	-8293
매해야	-8294
맥스는	-8295
머스가	-8296
먹으면	-8297
메리카	-8298
면으로	-8299
BA	-8300
Br	-8301
LI	-8302
Re	-8303
df	-8304
gm	-8305
io	-8306
mW	-8307
nt	-8308
oa	-8309
ph	-8310
ri	-8311
te	-8312
tu	-8313
ve	-8314
▁김	-8315
가집	-8316
거를	-8317
경사	-8318
구름	-8319
나가	-8320
놀아	-8321
달라	-8322
답의	-8323
당한	-8324
드백	-8325
듭니	-8326
려해	-8327
록되	-8328
름의	-8329
마감	-8330
마와	-8331
메오	-8332
메커	-8333
문을	-8334
물학	-8335
복하	-8336
부여	-8337
사유	-8338
상호	-8339
수란	-8340
수이	-8341
수입	-8342
술이	-8343
시티	-8344
씨는	-8345
어의	-8346
어질	-8347
언어	-8348
업합	-8349
역방	-8350
연구	-8351
예매	-8352
예전	-8353
오실	-8354
워진	-8355
이식	-8356
정체	-8357
조합	-8358
존재	-8359
축으	-8360
칫은	-8361
타시	-8362
태일	-8363
티가	-8364
퍼플	-8365
평균	-8366
폐쇄	-8367
포함	-8368
표값	-8369
표준	-8370
하강	-8371
학습	-8372
합보	-8373
해줄	-8374
해해	-8375
현합	-8376
회전	-8377
후반	-8378
▁공부	-8379
▁다섯	-8380
▁대응	-8381
▁어떻	-8382
▁줄이	-8383
격적인	-8384
라우팅	-8385
률에서	-8386
면이다	-8387
모리가	-8388
모리를	-8389
못한다	-8390
문으로	-8391
문이다	-8392
물학적	-8393
뭉쳐서	-8394
미분을	-8395
미이다	-8396
밍에서	-8397
박했다	-8398
반으로	-8399
ab	-8400
hu	-8401
oR	-8402
ry	-8403
가득	-8404
겪으	-8405
관점	-8406
괴가	-8407
금은	-8408
기를	-8409
꿈속	-8410
난다	-8411
늘과	-8412
늘리	-8413
드를	-8414
들도	-8415
떨어	-8416
뜨거	-8417
락해	-8418
려운	-8419
렴했	-8420
론의	-8421
마리	-8422
맥박	-8423
먼저	-8424
무거	-8425
발한	-8426
발화	-8427
배우	-8428
벅차	-8429
사용	-8430
산을	-8431
석은	-8432
소라	-8433
소에	-8434
술하	-8435
숨은	-8436
식하	-8437
신의	-8438
신합	-8439
심일	-8440
아는	-8441
아요	-8442
없으	-8443
영역	-8444
오후	-8445
외로	-8446
요합	-8447
원본	-8448
이렇	-8449
일에	-8450
재귀	-8451
좋지	-8452
중국	-8453
중에	-8454
지금	-8455
지라	-8456
지의	-8457
직렬	-8458
출력	-8459
코드	-8460
쿼리	-8461
키워	-8462
텐서	-8463
튜닝	-8464
트랜	-8465
판이	-8466
플렉	-8467
하니	-8468
한가	-8469
한강	-8470
합된	-8471
PON	-8472
tma	-8473
▁갖추	-8474
▁고생	-8475
▁과적	-8476
▁무지	-8477
▁수많	-8478
▁숨겨	-8479
▁아메	-8480
▁있잖	-8481
▁중력	-8482
기한다	-8483
레스는	-8484
론이다	-8485
명하고	-8486
반이면	-8487
반적인	-8488
반하는	-8489
발하고	-8490
발하여	-8491
발하자	-8492
발한다	-8493
발해야	-8494
방향과	-8495
밴드는	-8496
법으로	-8497
법이다	-8498
법이라	-8499
Mi	-8500
et	-8501
rg	-8502
▁권	-8503
▁던	-8504
가자	-8505
각의	-8506
간격	-8507
갈래	-8508
강으	-8509
경위	-8510
기야	-8511
끊었	-8512
디가	-8513
레길	-8514
력으	-8515
론에	-8516
미있	-8517
미합	-8518
보았	-8519
분이	-8520
사가	-8521
산이	-8522
석할	-8523
성하	-8524
스럽	-8525
식과	-8526
실입	-8527
씨로	-8528
아메	-8529
엇인	-8530
연산	-8531
영속	-8532
영어	-8533
예기	-8534
외적	-8535
요소	-8536
요한	-8537
용도	-8538
용량	-8539
용히	-8540
우주	-8541
운동	-8542
워밍	-8543
웨어	-8544
유지	-8545
이벤	-8546
이유	-8547
이전	-8548
인류	-8549
일반	-8550
일부	-8551
잇는	-8552
있기	-8553
있지	-8554
잠들	-8555
재미	-8556
전반	-8557
점보	-8558
정규	-8559
젝트	-8560
조건	-8561
조는	-8562
조용	-8563
좋아	-8564
준은	-8565
중하	-8566
증거	-8567
지하	-8568
지합	-8569
진행	-8570
체가	-8571
축해	-8572
탑피	-8573
터가	-8574
텔레	-8575
트입	-8576
학기	-8577
SIS	-8578
▁TI	-8579
▁가이	-8580
▁것보	-8581
▁복원	-8582
▁어깨	-8583
기화가	-8584
돌았다	-8585
링하는	-8586
뭇가지	-8587
벗어나	-8588
벽이다	-8589
벽하지	-8590
변한다	-8591
보나치	-8592
보드로	-8593
복된다	-8594
복적인	-8595
복하는	-8596
본적인	-8597
부분을	-8598
분명한	-8599
EE	-8600
ge	-8601
mb	-8602
og	-8603
ot	-8604
pt	-8605
▁m	-8606
▁울	-8607
계는	-8608
곱하	-8609
공부	-8610
과의	-8611
관이	-8612
극을	-8613
기로	-8614
기억	-8615
끄러	-8616
남겨	-8617
냅스	-8618
너는	-8619
니라	-8620
다시	-8621
도를	-8622
래에	-8623
련지	-8624
리디	-8625
마나	-8626
맥스	-8627
무게	-8628
문도	-8629
물질	-8630
미세	-8631
반응	-8632
법들	-8633
병합	-8634
봐볼	-8635
분했	-8636
불리	-8637
브워	-8638
상대	-8639
생각	-8640
서버	-8641
서서	-8642
서히	-8643
성됩	-8644
성할	-8645
속의	-8646
수의	-8647
수혜	-8648
순환	-8649
스모	-8650
식음	-8651
실시	-8652
실제	-8653
실패	-8654
싸먹	-8655
아닌	-8656
아를	-8657
아침	-8658
않는	-8659
알고	-8660
없습	-8661
없어	-8662
완벽	-8663
울에	-8664
일링	-8665
적된	-8666
전달	-8667
정적	-8668
준에	-8669
지고	-8670
착어	-8671
찰나	-8672
케일	-8673
크를	-8674
태론	-8675
톤이	-8676
트맥	-8677
피가	-8678
하이	-8679
험한	-8680
혼은	-8681
화된	-8682
화에	-8683
효율	-8684
▁갈대	-8685
▁감동	-8686
▁국물	-8687
▁마당	-8688
▁심연	-8689
발하는	-8690
분으로	-8691
분하지	-8692
붓다는	-8693
브워드	-8694
블슈팅	-8695
비로운	-8696
쁨인가	-8697
사에서	-8698
사적인	-8699
ES	-8700
IA	-8701
Ka	-8702
LH	-8703
No	-8704
eL	-8705
ih	-8706
ow	-8707
▁꽃	-8708
▁빈	-8709
가슴	-8710
간으	-8711
걸으	-8712
것입	-8713
계식	-8714
계적	-8715
교할	-8716
그가	-8717
글자	-8718
금씩	-8719
기상	-8720
나면	-8721
남지	-8722
내적	-8723
넘는	-8724
된대	-8725
딩하	-8726
람은	-8727
렬화	-8728
맹인	-8729
모픽	-8730
물음	-8731
미래	-8732
미로	-8733
바이	-8734
발생	-8735
밤에	-8736
법칙	-8737
변경	-8738
변환	-8739
별의	-8740
별하	-8741
복원	-8742
부른	-8743
부분	-8744
분기	-8745
분위	-8746
분으	-8747
산할	-8748
삶의	-8749
세포	-8750
소수	-8751
양성	-8752
예보	-8753
용되	-8754
우고	-8755
위를	-8756
을에	-8757
의존	-8758
이싱	-8759
있으	-8760
작하	-8761
장하	-8762
재적	-8763
점이	-8764
좋다	-8765
체의	-8766
칙의	-8767
판소	-8768
폭풍	-8769
프는	-8770
형을	-8771
혼합	-8772
AIF	-8773
edd	-8774
ent	-8775
pha	-8776
▁주제	-8777
각하는	-8778
당하며	-8779
도했다	-8780
라지는	-8781
머에서	-8782
반에는	-8783
비하자	-8784
사하다	-8785
사하며	-8786
사한다	-8787
산에서	-8788
산이다	-8789
산하고	-8790
산하는	-8791
살아야	-8792
삼겹살	-8793
상시키	-8794
상에서	-8795
상이다	-8796
상이라	-8797
상적인	-8798
상하면	-8799
Ad	-8800
CH	-8801
Em	-8802
RM	-8803
Sw	-8804
ap	-8805
he	-8806
su	-8807
wa	-8808
xa	-8809
감각	-8810
값에	-8811
값이	-8812
걸쳐	-8813
고로	-8814
기한	-8815
기회	-8816
깃집	-8817
나갈	-8818
나기	-8819
느껴	-8820
다들	-8821
다르	-8822
다를	-8823
단하	-8824
대단	-8825
대부	-8826
대신	-8827
델입	-8828
도입	-8829
독특	-8830
동작	-8831
뒤섞	-8832
등산	-8833
때는	-8834
때로	-8835
레지	-8836
루더	-8837
리기	-8838
리듬	-8839
만드	-8840
만들	-8841
만듭	-8842
맑고	-8843
모두	-8844
몸이	-8845
무슨	-8846
문으	-8847
바람	-8848
변한	-8849
보는	-8850
보이	-8851
소이	-8852
소프	-8853
스포	-8854
습과	-8855
시까	-8856
시점	-8857
신하	-8858
억나	-8859
웃을	-8860
이티	-8861
일정	-8862
저녁	-8863
적은	-8864
줄인	-8865
즘이	-8866
증에	-8867
지듀	-8868
지성	-8869
지평	-8870
체를	-8871
체크	-8872
태소	-8873
해당	-8874
해줍	-8875
흘러	-8876
힘든	-8877
osi	-8878
pen	-8879
▁것처	-8880
▁네거	-8881
▁일어	-8882
▁트러	-8883
계되었	-8884
내더라	-8885
도에서	-8886
론에서	-8887
립적인	-8888
베딩에	-8889
색으로	-8890
생하고	-8891
생한다	-8892
서에도	-8893
섞인다	-8894
설까지	-8895
성이란	-8896
성하고	-8897
성하기	-8898
성하는	-8899
DN	-8900
US	-8901
eN	-8902
가능	-8903
감소	-8904
강하	-8905
개별	-8906
거기	-8907
거지	-8908
검증	-8909
과제	-8910
관계	-8911
관리	-8912
관심	-8913
괜찮	-8914
구랑	-8915
구체	-8916
그때	-8917
그룹	-8918
근처	-8919
기반	-8920
깊이	-8921
깜빡	-8922
껴진	-8923
꿈을	-8924
나누	-8925
나비	-8926
네트	-8927
누어	-8928
능합	-8929
다면	-8930
대의	-8931
댓값	-8932
더글	-8933
동성	-8934
드해	-8935
따라	-8936
러티	-8937
런과	-8938
려면	-8939
령으	-8940
례한	-8941
로가	-8942
립된	-8943
머에	-8944
모드	-8945
문에	-8946
바라	-8947
반으	-8948
벌써	-8949
보의	-8950
본질	-8951
소한	-8952
습률	-8953
씨앗	-8954
악적	-8955
야겠	-8956
역된	-8957
용이	-8958
을수	-8959
의지	-8960
의해	-8961
있겠	-8962
있다	-8963
정말	-8964
정성	-8965
제공	-8966
젠가	-8967
좋겠	-8968
즘은	-8969
진짜	-8970
질수	-8971
처에	-8972
카톡	-8973
크의	-8974
통과	-8975
평조	-8976
표를	-8977
표적	-8978
합하	-8979
해주	-8980
험이	-8981
화도	-8982
▁단위	-8983
▁사계	-8984
▁사실	-8985
▁에너	-8986
▁자리	-8987
▁제약	-8988
▁좋네	-8989
▁코퍼	-8990
▁회의	-8991
리하여	-8992
배하는	-8993
성하며	-8994
세요를	-8995
셈에서	-8996
션이야	-8997
소들을	-8998
소들이	-8999
GE	-9000
IS	-9001
ON	-9002
ie	-9003
ld	-9004
tr	-9005
가까	-9006
가치	-9007
걸음	-9008
게인	-9009
결을	-9010
과가	-9011
과를	-9012
구현	-9013
국의	-9014
그게	-9015
그야	-9016
기법	-9017
기서	-9018
기증	-9019
깊을	-9020
남기	-9021
동은	-9022
되더	-9023
드롭	-9024
떨까	-9025
래한	-9026
러내	-9027
력에	-9028
류가	-9029
림도	-9030
만에	-9031
망의	-9032
모른	-9033
별한	-9034
부를	-9035
사올	-9036
서귀	-9037
송하	-9038
스토	-9039
시한	-9040
신경	-9041
실된	-9042
아니	-9043
악은	-9044
않도	-9045
않아	-9046
어때	-9047
어제	-9048
어형	-9049
없을	-9050
여전	-9051
으므	-9052
이것	-9053
이와	-9054
이해	-9055
인과	-9056
인식	-9057
인트	-9058
절약	-9059
접미	-9060
정하	-9061
정한	-9062
져가	-9063
주말	-9064
증했	-9065
지속	-9066
진동	-9067
진으	-9068
찮아	-9069
추랑	-9070
치지	-9071
키는	-9072
패턴	-9073
프로	-9074
하거	-9075
함께	-9076
현상	-9077
현하	-9078
형식	-9079
회의	-9080
효과	-9081
후보	-9082
후에	-9083
흐름	-9084
ALP	-9085
▁개인	-9086
▁기여	-9087
▁발화	-9088
▁밤하	-9089
▁순방	-9090
▁어근	-9091
▁행동	-9092
과하고	-9093
봐볼게	-9094
소리가	-9095
소이다	-9096
소하고	-9097
소하는	-9098
소하다	-9099
CL	-9100
CO	-9101
LO	-9102
Pu	-9103
ft	-9104
fy	-9105
▁픽	-9106
가깝	-9107
가보	-9108
가소	-9109
값의	-9110
것을	-9111
것인	-9112
고마	-9113
구분	-9114
규칙	-9115
균을	-9116
근본	-9117
기계	-9118
기쁨	-9119
깨더	-9120
끼는	-9121
내가	-9122
넘으	-9123
누적	-9124
느끼	-9125
달리	-9126
답을	-9127
당연	-9128
대해	-9129
도가	-9130
동시	-9131
동일	-9132
둑길	-9133
듈이	-9134
드리	-9135
디버	-9136
로를	-9137
로저	-9138
론을	-9139
률적	-9140
마이	-9141
바로	-9142
비싸	-9143
성합	-9144
션을	-9145
속도	-9146
수만	-9147
수열	-9148
신한	-9149
않습	-9150
앞에	-9151
어와	-9152
어요	-9153
엔트	-9154
온라	-9155
왔잖	-9156
우리	-9157
유명	-9158
유사	-9159
이상	-9160
임계	-9161
있었	-9162
자율	-9163
적화	-9164
정합	-9165
조를	-9166
직결	-9167
체력	-9168
큰의	-9169
태로	-9170
통찰	-9171
트가	-9172
파에	-9173
필수	-9174
합과	-9175
향으	-9176
험도	-9177
▁Ph	-9178
▁국립	-9179
▁생기	-9180
▁선법	-9181
▁않았	-9182
▁정석	-9183
▁키우	-9184
▁하거	-9185
릿하고	-9186
소한다	-9187
속되면	-9188
속성은	-9189
속성을	-9190
속에서	-9191
속으로	-9192
속적인	-9193
송하는	-9194
수라고	-9195
수에서	-9196
수이다	-9197
수적인	-9198
순되는	-9199
Fe	-9200
Ll	-9201
de	-9202
iG	-9203
is	-9204
▁b	-9205
▁봤	-9206
▁은	-9207
갈까	-9208
값까	-9209
값으	-9210
것이	-9211
격은	-9212
구나	-9213
기적	-9214
나타	-9215
놀라	-9216
놀랍	-9217
능력	-9218
단풍	-9219
듈은	-9220
딩은	-9221
뚜렷	-9222
래칫	-9223
리하	-9224
린다	-9225
면이	-9226
모로	-9227
문은	-9228
문의	-9229
물리	-9230
물은	-9231
받지	-9232
별도	-9233
복잡	-9234
분히	-9235
불렀	-9236
비슷	-9237
사계	-9238
산성	-9239
새벽	-9240
생물	-9241
수학	-9242
스러	-9243
스며	-9244
습관	-9245
습의	-9246
아갑	-9247
야이	-9248
어내	-9249
어낸	-9250
어들	-9251
여러	-9252
연결	-9253
올레	-9254
웜업	-9255
음악	-9256
이가	-9257
이런	-9258
입한	-9259
자든	-9260
잠시	-9261
장기	-9262
적이	-9263
점수	-9264
정답	-9265
준의	-9266
줄은	-9267
중력	-9268
즘입	-9269
찮을	-9270
찰을	-9271
침의	-9272
커피	-9273
코사	-9274
쾌락	-9275
쿠라	-9276
턴을	-9277
하루	-9278
합의	-9279
합할	-9280
험으	-9281
환각	-9282
환의	-9283
▁분야	-9284
▁순위	-9285
▁의존	-9286
▁크거	-9287
능성을	-9288
동하며	-9289
명하는	-9290
별에서	-9291
보자용	-9292
술이다	-9293
술하는	-9294
스킹은	-9295
스턴스	-9296
스템에	-9297
스템은	-9298
스템을	-9299
Ro	-9300
ai	-9301
it	-9302
sp	-9303
▁텍	-9304
▁팩	-9305
가도	-9306
개념	-9307
것보	-9308
경망	-9309
교차	-9310
그리	-9311
기해	-9312
길이	-9313
깅이	-9314
깊은	-9315
까요	-9316
꿈에	-9317
끊임	-9318
끼기	-9319
나이	-9320
내고	-9321
늘을	-9322
능할	-9323
니배	-9324
다음	-9325
담고	-9326
델이	-9327
동전	-9328
등의	-9329
랍게	-9330
래서	-9331
량적	-9332
런의	-9333
레젠	-9334
련이	-9335
렴을	-9336
렵지	-9337
말에	-9338
매개	-9339
문제	-9340
배치	-9341
보를	-9342
생명	-9343
석의	-9344
선형	-9345
셋째	-9346
소진	-9347
속성	-9348
수업	-9349
숙소	-9350
스팅	-9351
않으	-9352
억의	-9353
영감	-9354
오히	-9355
용됩	-9356
우드	-9357
응형	-9358
임없	-9359
입력	-9360
있을	-9361
저기	-9362
전기	-9363
전으	-9364
정은	-9365
조금	-9366
초기	-9367
크로	-9368
키보	-9369
태어	-9370
태에	-9371
텍스	-9372
토큰	-9373
트의	-9374
특정	-9375
퍼파	-9376
프리	-9377
할까	-9378
해바	-9379
행렬	-9380
현재	-9381
흐른	-9382
▁ep	-9383
▁극대	-9384
▁말처	-9385
▁수반	-9386
▁원본	-9387
간적인	-9388
렷하다	-9389
수만큼	-9390
수하면	-9391
스템의	-9392
스템이	-9393
스트가	-9394
스트도	-9395
스트로	-9396
습에서	-9397
습하는	-9398
슷해서	-9399
TE	-9400
▁f	-9401
▁까	-9402
▁삼	-9403
값은	-9404
같이	-9405
구에	-9406
그것	-9407
나도	-9408
나의	-9409
낮아	-9410
낮은	-9411
내일	-9412
내줘	-9413
능이	-9414
능해	-9415
다른	-9416
델은	-9417
델을	-9418
려오	-9419
률을	-9420
리할	-9421
만개	-9422
많다	-9423
모듈	-9424
봄에	-9425
부족	-9426
비활	-9427
빼는	-9428
사이	-9429
상성	-9430
색으	-9431
설계	-9432
소뇌	-9433
수치	-9434
순한	-9435
슈팅	-9436
스타	-9437
아도	-9438
아이	-9439
앞의	-9440
얼마	-9441
여하	-9442
연어	-9443
예측	-9444
용된	-9445
웃은	-9446
음이	-9447
이디	-9448
인공	-9449
일각	-9450
임베	-9451
입니	-9452
장합	-9453
재앙	-9454
저는	-9455
제거	-9456
제구	-9457
진에	-9458
진정	-9459
찾습	-9460
치와	-9461
크게	-9462
터페	-9463
템의	-9464
파이	-9465
페를	-9466
플래	-9467
피합	-9468
할당	-9469
할래	-9470
형의	-9471
호흡	-9472
▁si	-9473
▁교착	-9474
▁따르	-9475
▁어렵	-9476
광활한	-9477
물이다	-9478
스로를	-9479
스템도	-9480
시간에	-9481
시하여	-9482
식에서	-9483
식으로	-9484
식하고	-9485
식하는	-9486
식한다	-9487
신하는	-9488
신한다	-9489
실된다	-9490
실에서	-9491
심시간	-9492
심이다	-9493
심적인	-9494
아니다	-9495
안되었	-9496
안에서	-9497
앉아서	-9498
않지만	-9499
EA	-9500
GL	-9501
GP	-9502
▁쌀	-9503
간단	-9504
갑자	-9505
같은	-9506
것들	-9507
것은	-9508
겨야	-9509
겨울	-9510
결되	-9511
고점	-9512
글러	-9513
날의	-9514
논쟁	-9515
높은	-9516
뉴로	-9517
능의	-9518
다로	-9519
다루	-9520
답답	-9521
당합	-9522
대뇌	-9523
델에	-9524
드에	-9525
렬을	-9526
링할	-9527
많이	-9528
맞아	-9529
모토	-9530
문서	-9531
방식	-9532
방인	-9533
벌어	-9534
보간	-9535
보나	-9536
부호	-9537
분리	-9538
브마	-9539
사라	-9540
사와	-9541
생긴	-9542
서의	-9543
설정	-9544
속에	-9545
시스	-9546
식은	-9547
식입	-9548
쌀쌀	-9549
어남	-9550
어떤	-9551
어텐	-9552
억하	-9553
예를	-9554
요즘	-9555
있어	-9556
자기	-9557
작은	-9558
적으	-9559
점차	-9560
중도	-9561
지내	-9562
진화	-9563
철학	-9564
커니	-9565
클수	-9566
키와	-9567
트리	-9568
파벌	-9569
하세	-9570
한테	-9571
합쳐	-9572
해하	-9573
형태	-9574
ERO	-9575
▁떠다	-9576
▁자세	-9577
▁전환	-9578
▁정직	-9579
▁진단	-9580
▁테라	-9581
▁파라	-9582
▁하락	-9583
가지로	-9584
걸으면	-9585
력으로	-9586
았으며	-9587
앞에서	-9588
앱에서	-9589
야기로	-9590
야기를	-9591
야기야	-9592
야기인	-9593
약한다	-9594
양으로	-9595
어나기	-9596
어낸다	-9597
어들어	-9598
어지는	-9599
IB	-9600
Lo	-9601
PS	-9602
Ph	-9603
RS	-9604
il	-9605
가중	-9606
같다	-9607
거대	-9608
거울	-9609
건지	-9610
걷고	-9611
것처	-9612
경험	-9613
계면	-9614
고차	-9615
공간	-9616
구가	-9617
기이	-9618
나뭇	-9619
남역	-9620
노란	-9621
단한	-9622
델의	-9623
도구	-9624
도했	-9625
됩니	-9626
뒤쪽	-9627
등이	-9628
따르	-9629
라집	-9630
러블	-9631
레스	-9632
로드	-9633
롬프	-9634
률에	-9635
리에	-9636
만날	-9637
메울	-9638
명할	-9639
모델	-9640
미묘	-9641
바퀴	-9642
밸류	-9643
버그	-9644
부동	-9645
분해	-9646
쁨을	-9647
상적	-9648
생멸	-9649
서늘	-9650
소성	-9651
수도	-9652
시원	-9653
앉아	-9654
약자	-9655
억에	-9656
역전	-9657
영원	-9658
영향	-9659
위한	-9660
유롭	-9661
은데	-9662
의하	-9663
이므	-9664
이성	-9665
이어	-9666
인간	-9667
일곱	-9668
잠을	-9669
장찌	-9670
적일	-9671
전체	-9672
접적	-9673
진의	-9674
질문	-9675
질에	-9676
템을	-9677
피던	-9678
▁DN	-9679
▁동기	-9680
▁어쩌	-9681
▁정서	-9682
▁정책	-9683
▁진전	-9684
값이다	-9685
규화의	-9686
당하는	-9687
되었으	-9688
링하며	-9689
어진다	-9690
억으로	-9691
억하고	-9692
언이다	-9693
얻는다	-9694
업하여	-9695
업해야	-9696
엇인가	-9697
여주었	-9698
여준다	-9699
AR	-9700
Cl	-9701
EO	-9702
NO	-9703
SE	-9704
▁막	-9705
▁펜	-9706
간이	-9707
것에	-9708
귀에	-9709
극적	-9710
기간	-9711
나쁜	-9712
날씨	-9713
내려	-9714
냐는	-9715
너무	-9716
높여	-9717
뇌는	-9718
느낄	-9719
단점	-9720
득해	-9721
디안	-9722
록됩	-9723
립공	-9724
맛이	-9725
면역	-9726
멸이	-9727
물드	-9728
밀접	-9729
반면	-9730
밝게	-9731
배하	-9732
블럼	-9733
빠르	-9734
색상	-9735
수님	-9736
수행	-9737
썬이	-9738
씨가	-9739
알아	-9740
어로	-9741
연의	-9742
옵티	-9743
외부	-9744
윌리	-9745
으니	-9746
이들	-9747
이토	-9748
입합	-9749
자발	-9750
재의	-9751
절대	-9752
정돈	-9753
줄이	-9754
중복	-9755
지수	-9756
직접	-9757
집니	-9758
집단	-9759
칙만	-9760
칙이	-9761
칩니	-9762
케줄	-9763
크거	-9764
키며	-9765
피보	-9766
하므	-9767
행됩	-9768
▁DA	-9769
▁교감	-9770
▁나와	-9771
▁무서	-9772
▁문화	-9773
▁바라	-9774
▁숨은	-9775
▁시스	-9776
▁역설	-9777
▁자겠	-9778
▁조율	-9779
듈에는	-9780
들어갈	-9781
못하지	-9782
벽에는	-9783
분했다	-9784
여하지	-9785
역으로	-9786
역학은	-9787
연에서	-9788
연하지	-9789
열이다	-9790
영하자	-9791
오른다	-9792
온라인	-9793
온전히	-9794
올리게	-9795
왔는데	-9796
왔어요	-9797
외적인	-9798
요하고	-9799
Ga	-9800
HI	-9801
RI	-9802
ak	-9803
aw	-9804
ea	-9805
lr	-9806
▁c	-9807
▁돕	-9808
가진	-9809
각할	-9810
값입	-9811
거야	-9812
격마	-9813
견되	-9814
계값	-9815
계열	-9816
곱셈	-9817
곳으	-9818
극대	-9819
길어	-9820
넷에	-9821
뉴스	-9822
능성	-9823
능하	-9824
다중	-9825
달됩	-9826
대세	-9827
도메	-9828
듈로	-9829
듣는	-9830
듬에	-9831
디서	-9832
람이	-9833
래하	-9834
력입	-9835
많아	-9836
무의	-9837
미시	-9838
미이	-9839
밍의	-9840
변수	-9841
보낼	-9842
비해	-9843
성능	-9844
습을	-9845
식당	-9846
신비	-9847
어렵	-9848
응이	-9849
이러	-9850
이퍼	-9851
인으	-9852
있게	-9853
있습	-9854
작동	-9855
점점	-9856
정서	-9857
제에	-9858
주를	-9859
지도	-9860
집중	-9861
초보	-9862
최대	-9863
최적	-9864
치를	-9865
탐구	-9866
태입	-9867
터로	-9868
피의	-9869
하로	-9870
형성	-9871
흐를	-9872
lar	-9873
oat	-9874
▁나눈	-9875
▁나뉜	-9876
▁논쟁	-9877
▁사유	-9878
것이다	-9879
곳으로	-9880
국어를	-9881
력에서	-9882
로디였	-9883
백되어	-9884
봄에는	-9885
요하다	-9886
요하면	-9887
용에서	-9888
용이야	-9889
용하고	-9890
용하는	-9891
용하여	-9892
용한다	-9893
용형이	-9894
우하는	-9895
운동을	-9896
워드는	-9897
워드를	-9898
워진다	-9899
AK	-9900
HA	-9901
MP	-9902
RO	-9903
ll	-9904
sc	-9905
▁겹	-9906
▁광	-9907
▁업	-9908
가끔	-9909
각에	-9910
개선	-9911
객관	-9912
고립	-9913
공지	-9914
교착	-9915
그늘	-9916
니체	-9917
던스	-9918
데기	-9919
도에	-9920
동하	-9921
렀다	-9922
렷하	-9923
로젝	-9924
록은	-9925
리량	-9926
모든	-9927
발적	-9928
번하	-9929
벡터	-9930
사한	-9931
상을	-9932
상의	-9933
상태	-9934
생할	-9935
서브	-9936
성했	-9937
소시	-9938
스케	-9939
시작	-9940
시퀀	-9941
식이	-9942
쓰고	-9943
에피	-9944
예상	-9945
요하	-9946
용하	-9947
유한	-9948
응하	-9949
이었	-9950
이의	-9951
인팅	-9952
일이	-9953
자세	-9954
장은	-9955
적절	-9956
주고	-9957
캐시	-9958
크면	-9959
테이	-9960
트워	-9961
특권	-9962
포인	-9963
한국	-9964
해에	-9965
핵심	-9966
행입	-9967
현되	-9968
현했	-9969
▁re	-9970
▁sp	-9971
▁것인	-9972
▁것일	-9973
▁단련	-9974
▁대뇌	-9975
▁대세	-9976
▁데드	-9977
▁디코	-9978
▁쉬면	-9979
▁올리	-9980
▁체력	-9981
딩하는	-9982
빛으로	-9983
생해야	-9984
워크를	-9985
워크의	-9986
원으로	-9987
원이다	-9988
원하고	-9989
위기가	-9990
유롭게	-9991
유이다	-9992
유하여	-9993
율적인	-9994
으로만	-9995
을에는	-9996
음으로	-9997
음이다	-9998
응하지	-9999
Fo	-10000
JS	-10001
LE	-10002
pH	-10003
vi	-10004
▁J	-10005
가시	-10006
강이	-10007
게도	-10008
겐슈	-10009
격한	-10010
경을	-10011
고야	-10012
공원	-10013
구의	-10014
귀시	-10015
높인	-10016
달되	-10017
대답	-10018
대회	-10019
데이	-10020
동안	-10021
드럽	-10022
런을	-10023
루어	-10024
마귀	-10025
많았	-10026
무한	-10027
반적	-10028
보며	-10029
보면	-10030
불교	-10031
생해	-10032
서사	-10033
성패	-10034
세계	-10035
수는	-10036
습이	-10037
슷한	-10038
시자	-10039
심에	-10040
아와	-10041
악할	-10042
알겠	-10043
어났	-10044
여기	-10045
역도	-10046
예일	-10047
완성	-10048
완화	-10049
유래	-10050
이스	-10051
일상	-10052
자역	-10053
장한	-10054
적응	-10055
전력	-10056
정에	-10057
조율	-10058
준비	-10059
천천	-10060
추천	-10061
텐데	-10062
페이	-10063
표시	-10064
확률	-10065
PEE	-10066
ant	-10067
▁IB	-10068
▁드라	-10069
▁모여	-10070
▁반주	-10071
▁완성	-10072
▁조절	-10073
▁쿠라	-10074
▁탑케	-10075
동하여	-10076
들었어	-10077
별하다	-10078
산한다	-10079
스트레	-10080
스트를	-10081
음에는	-10082
의식도	-10083
의식은	-10084
의식을	-10085
의식의	-10086
의식이	-10087
이는데	-10088
이드는	-10089
이로움	-10090
이론에	-10091
이론의	-10092
이면서	-10093
이블은	-10094
이블을	-10095
이에서	-10096
이저가	-10097
이저는	-10098
이저를	-10099
TI	-10100
mi	-10101
ta	-10102
ur	-10103
▁겨	-10104
▁넣	-10105
▁늦	-10106
▁센	-10107
▁숏	-10108
▁움	-10109
같습	-10110
고깃	-10111
그러	-10112
금비	-10113
꿈이	-10114
내더	-10115
내린	-10116
니츠	-10117
다섯	-10118
단순	-10119
답변	-10120
당기	-10121
동기	-10122
때가	-10123
럼이	-10124
로이	-10125
리밍	-10126
먹다	-10127
명이	-10128
모방	-10129
발견	-10130
벗어	-10131
보량	-10132
보통	-10133
분도	-10134
붕괴	-10135
비교	-10136
상한	-10137
새로	-10138
소로	-10139
소화	-10140
수천	-10141
역동	-10142
오늘	-10143
우산	-10144
위치	-10145
인라	-10146
일지	-10147
읽고	-10148
입자	-10149
작된	-10150
전해	-10151
정점	-10152
져온	-10153
즘을	-10154
채택	-10155
치시	-10156
코스	-10157
큰을	-10158
특화	-10159
팅하	-10160
포가	-10161
필요	-10162
학이	-10163
할지	-10164
▁Fe	-10165
▁PS	-10166
▁구간	-10167
▁느려	-10168
▁머릿	-10169
▁반드	-10170
▁분열	-10171
▁성패	-10172
▁아무	-10173
▁워밍	-10174
▁일주	-10175
▁재현	-10176
▁적절	-10177
▁좋으	-10178
▁최초	-10179
▁탐구	-10180
▁호기	-10181
규화와	-10182
나이저	-10183
넷에서	-10184
되겠다	-10185
스크에	-10186
야기는	-10187
위기도	-10188
이터가	-10189
이터는	-10190
이터들	-10191
이터로	-10192
이터를	-10193
이터셋	-10194
이터에	-10195
이터와	-10196
이터의	-10197
이트는	-10198
이트로	-10199
am	-10200
▁뛰	-10201
▁뻔	-10202
간적	-10203
갖추	-10204
거잖	-10205
겹살	-10206
고려	-10207
기에	-10208
끔은	-10209
능한	-10210
다양	-10211
등록	-10212
릿하	-10213
멀리	-10214
문명	-10215
반영	-10216
산은	-10217
섞인	-10218
수렴	-10219
수집	-10220
습된	-10221
실이	-10222
악이	-10223
안정	-10224
어디	-10225
어떻	-10226
어오	-10227
어진	-10228
역학	-10229
완전	-10230
움이	-10231
인해	-10232
잡한	-10233
조화	-10234
주가	-10235
준으	-10236
중요	-10237
질이	-10238
집이	-10239
체계	-10240
켰어	-10241
통해	-10242
트레	-10243
특성	-10244
파하	-10245
폐지	-10246
한옥	-10247
항상	-10248
활한	-10249
chi	-10250
▁걸음	-10251
▁데이	-10252
▁만드	-10253
▁모임	-10254
▁부드	-10255
▁않으	-10256
기에는	-10257
깅이지	-10258
되더라	-10259
려오는	-10260
루더라	-10261
몽처럼	-10262
상된다	-10263
었지만	-10264
열에서	-10265
원에서	-10266
이트를	-10267
인가는	-10268
인가요	-10269
인되면	-10270
인으로	-10271
인터는	-10272
일에서	-10273
일하게	-10274
읽었어	-10275
임없이	-10276
입하면	-10277
있겠다	-10278
있었어	-10279
작된다	-10280
작용을	-10281
작하여	-10282
작했어	-10283
잡성을	-10284
장된다	-10285
장하고	-10286
장하는	-10287
장하면	-10288
장하여	-10289
장하지	-10290
장한다	-10291
장해서	-10292
장해야	-10293
장했고	-10294
재까지	-10295
재하는	-10296
재한다	-10297
적된다	-10298
적이란	-10299
적이면	-10300
적이지	-10301
적하고	-10302
전달물	-10303
전으로	-10304
전이다	-10305
전적인	-10306
전하는	-10307
전하지	-10308
전했다	-10309
점보다	-10310
점으로	-10311
정되고	-10312
정되는	-10313
정된다	-10314
정보이	-10315
정성을	-10316
정에서	-10317
정으로	-10318
정이다	-10319
정이라	-10320
정이란	-10321
정적인	-10322
정하고	-10323
정하는	-10324
정하면	-10325
정하여	-10326
정한다	-10327
제에서	-10328
제이다	-10329
져왔어	-10330
조라는	-10331
조에서	-10332
족하고	-10333
존하기	-10334
죽이지	-10335
준에서	-10336
준으로	-10337
줄이란	-10338
중에서	-10339
중치가	-10340
중치를	-10341
즘으로	-10342
즘이다	-10343
즘이라	-10344
증자의	-10345
증하고	-10346
증했다	-10347
지능의	-10348
지능이	-10349
지되는	-10350
지되어	-10351
지듀얼	-10352
지라고	-10353
지이다	-10354
지지만	-10355
지하고	-10356
지하는	-10357
지하면	-10358
지하여	-10359
지한다	-10360
직여야	-10361
진에서	-10362
진으로	-10363
질에서	-10364
질이다	-10365
집에서	-10366
집이래	-10367
찌개도	-10368
착하여	-10369
찬가지	-10370
처에서	-10371
천해줄	-10372
천해줘	-10373
철학적	-10374
체되는	-10375
체되면	-10376
쳐져서	-10377
축으로	-10378
축하는	-10379
출하는	-10380
출하여	-10381
출한다	-10382
측되기	-10383
측하며	-10384
치시키	-10385
치에서	-10386
칩니다	-10387
칭되는	-10388
칭하는	-10389
캐시에	-10390
커니즘	-10391
코딩과	-10392
코딩되	-10393
코딩은	-10394
쾌락을	-10395
퀀스를	-10396
퀀스의	-10397
크나이	-10398
크에서	-10399
클라우	-10400
클레이	-10401
클수록	-10402
클에서	-10403
키도록	-10404
키에서	-10405
키지만	-10406
태어나	-10407
태에서	-10408
태이다	-10409
택되고	-10410
택되었	-10411
택하기	-10412
택하는	-10413
택하며	-10414
터링할	-10415
터에는	-10416
터이다	-10417
턴스를	-10418
턴으로	-10419
테스트	-10420
텐션은	-10421
텐션을	-10422
템으로	-10423
템이다	-10424
토스가	-10425
토스는	-10426
토스의	-10427
토텔레	-10428
톡으로	-10429
통이라	-10430
통인가	-10431
통적인	-10432
트라디	-10433
트로피	-10434
트워크	-10435
팅이란	-10436
팅하는	-10437
파되고	-10438
파된다	-10439
파라미	-10440
파수를	-10441
파에서	-10442
파하며	-10443
판소리	-10444
패하는	-10445
펜로즈	-10446
편적인	-10447
포머는	-10448
포머를	-10449
포머의	-10450
표이다	-10451
표인데	-10452
표적인	-10453
퓨팅은	-10454
프라는	-10455
프라인	-10456
프스태	-10457
플렉시	-10458
하는가	-10459
하는데	-10460
하로는	-10461
하면서	-10462
하세요	-10463
학에서	-10464
학이란	-10465
한다고	-10466
한지에	-10467
함으로	-10468
함하는	-10469
함하면	-10470
함해야	-10471
합되어	-10472
합된다	-10473
합에서	-10474
합으로	-10475
합이다	-10476
합하여	-10477
해되는	-10478
해볼까	-10479
해봐야	-10480
해져서	-10481
해하고	-10482
해하는	-10483
해한다	-10484
해해서	-10485
했다는	-10486
했듯이	-10487
했어요	-10488
했지만	-10489
행하고	-10490
행하면	-10491
행하여	-10492
향으로	-10493
험으로	-10494
험이다	-10495
험하고	-10496
험하는	-10497
험한다	-10498
현되어	-10499
현하고	-10500
현하는	-10501
현하면	-10502
현하여	-10503
현한다	-10504
호되는	-10505
호된다	-10506
호작용	-10507
화되어	-10508
화에서	-10509
화용론	-10510
화하기	-10511
화하면	-10512
화한다	-10513
환되고	-10514
환되는	-10515
환되어	-10516
환성이	-10517
환하고	-10518
환하는	-10519
횟수가	-10520
후에는	-10521
힘들어	-10522
ALPH	-10523
ANCE	-10524
ANEO	-10525
EMIN	-10526
ENCE	-10527
Fiel	-10528
INPU	-10529
LERP	-10530
Nort	-10531
Qwen	-10532
SIST	-10533
dien	-10534
eNor	-10535
enti	-10536
epth	-10537
grad	-10538
iden	-10539
istr	-10540
lare	-10541
loat	-10542
loud	-10543
moid	-10544
quan	-10545
reFi	-10546
siti	-10547
stat	-10548
tary	-10549
tten	-10550
usne	-10551
veri	-10552
voca	-10553
▁Bra	-10554
▁Clo	-10555
▁Gat	-10556
▁JSO	-10557
▁Lla	-10558
▁LoR	-10559
▁PER	-10560
▁RLA	-10561
▁RLH	-10562
▁SEL	-10563
▁TIE	-10564
▁con	-10565
▁ret	-10566
▁spe	-10567
▁sqr	-10568
▁가능하	-10569
▁가이드	-10570
▁가진다	-10571
▁감각들	-10572
▁감소시	-10573
▁갖는다	-10574
▁갱신이	-10575
▁걸으면	-10576
▁검증이	-10577
▁경이롭	-10578
▁계산하	-10579
▁과적합	-10580
▁관련지	-10581
▁괜찮았	-10582
▁구애받	-10583
▁구현되	-10584
▁구현했	-10585
▁규칙들	-10586
▁그것들	-10587
▁그래디	-10588
▁기계식	-10589
▁깊어질	-10590
▁깨어나	-10591
▁끊임없	-10592
▁나누었	-10593
▁낮아졌	-10594
▁높여주	-10595
▁뉴로모	-10596
▁다양성	-10597
▁단계마	-10598
▁달성하	-10599
▁대표적	-10600
▁돌아갑	-10601
▁돌아온	-10602
▁드롭아	-10603
▁들어오	-10604
▁들어준	-10605
▁들었어	-10606
▁디카페	-10607
▁떨어지	-10608
▁라우터	-10609
▁라이프	-10610
▁리허설	-10611
▁마이크	-10612
▁만들잖	-10613
▁맛있다	-10614
▁매개변	-10615
▁머릿속	-10616
▁모델입	-10617
▁무엇이	-10618
▁물리학	-10619
▁미세조	-10620
▁반복되	-10621
▁반주기	-10622
▁발견되	-10623
▁발생시	-10624
▁밝혀졌	-10625
▁방법들	-10626
▁배고프	-10627
▁법칙들	-10628
▁법칙만	-10629
▁벗어나	-10630
▁변덕스	-10631
▁병렬화	-10632
▁보장되	-10633
▁복귀시	-10634
▁복잡하	-10635
▁부분들	-10636
▁빛으로	-10637
▁사용되	-10638
▁사용됩	-10639
▁사용량	-10640
▁사용하	-10641
▁상수들	-10642
▁상태라	-10643
▁생성이	-10644
▁생성하	-10645
▁설계에	-10646
▁소프트	-10647
▁손실되	-10648
▁순간이	-10649
▁시각화	-10650
▁시작해	-10651
▁아이들	-10652
▁아이디	-10653
▁아키텍	-10654
▁알고리	-10655
▁양자라	-10656
▁언어마	-10657
▁연산들	-10658
▁연속적	-10659
▁오늘부	-10660
▁오류로	-10661
▁오르케	-10662
▁올랐다	-10663
▁외로움	-10664
▁위해서	-10665
▁의미론	-10666
▁이벤트	-10667
▁이해인	-10668
▁이해일	-10669
▁이해하	-10670
▁인공의	-10671
▁인공지	-10672
▁인식하	-10673
▁인프라	-10674
▁일요일	-10675
▁임피던	-10676
▁있느냐	-10677
▁있으니	-10678
▁있으므	-10679
▁자기회	-10680
▁자유롭	-10681
▁작동하	-10682
▁재계산	-10683
▁제곱근	-10684
▁존재론	-10685
▁존재인	-10686
▁존재하	-10687
▁좋으면	-10688
▁중간중	-10689
▁중요하	-10690
▁증가하	-10691
▁지나치	-10692
▁질의응	-10693
▁집중하	-10694
▁차지하	-10695
▁찾아오	-10696
▁처리량	-10697
▁처리하	-10698
▁체크포	-10699
▁최고점	-10700
▁추출하	-10701
▁카페인	-10702
▁코딩하	-10703
▁쿠라모	-10704
▁클라우	-10705
▁태어나	-10706
▁테아닌	-10707
▁통합정	-10708
▁파라미	-10709
▁파스칼	-10710
▁포기했	-10711
▁표현되	-10712
▁프리즘	-10713
▁프리픽	-10714
▁피드포	-10715
▁하더라	-10716
▁하이브	-10717
▁학습하	-10718
▁해결책	-10719
▁행렬이	-10720
▁현상이	-10721
▁현실만	-10722
▁형태론	-10723
▁형태일	-10724
▁호메오	-10725
▁호접지	-10726
▁혼자뿐	-10727
▁확인해	-10728
▁흘러간	-10729
▁힘들었	-10730
가야겠다	-10731
가지이다	-10732
가합니다	-10733
각적으로	-10734
감이니까	-10735
값입니다	-10736
같습니다	-10737
개변수를	-10738
개변수에	-10739
걱정이야	-10740
결하지만	-10741
계입니다	-10742
계적이다	-10743
관적으로	-10744
교에서는	-10745
규화한다	-10746
균적으로	-10747
기적으로	-10748
기화되는	-10749
기화되어	-10750
기화하면	-10751
김새라는	-10752
깜빡했어	-10753
뀌더라고	-10754
낌이었어	-10755
념입니다	-10756
녕하세요	-10757
뉘앙스를	-10758
능합니다	-10759
니즘으로	-10760
니즘이다	-10761
달됩니다	-10762
달록하게	-10763
당합니다	-10764
도했다가	-10765
동소수점	-10766
동적으로	-10767
되더라도	-10768
드밴드는	-10769
들어진다	-10770
디언트가	-10771
디언트는	-10772
디언트를	-10773
디언트의	-10774
딱이잖아	-10775
뜻해져서	-10776
라미터의	-10777
라이드는	-10778
라인으로	-10779
라집니다	-10780
라클레이	-10781
래되었다	-10782
래밍에서	-10783
랜덤하게	-10784
랜스포머	-10785
량적으로	-10786
러워진다	-10787
레이터가	-10788
레이터들	-10789
레이터의	-10790
렉시티가	-10791
렉시티는	-10792
렉시티를	-10793
력입니다	-10794
렬화하여	-10795
록됩니다	-10796
롭아웃은	-10797
롭아웃을	-10798
률입니다	-10799
리스토텔	-10800
리입니다	-10801
리적으로	-10802
리즘으로	-10803
리즘이다	-10804
리즘이라	-10805
만으로는	-10806
머에서는	-10807
먹으면서	-10808
명하지만	-10809
명해지며	-10810
모리에서	-10811
목적으로	-10812
묘사한다	-10813
무실에서	-10814
뮬레이션	-10815
미합니다	-10816
반적으로	-10817
반적이다	-10818
받습니다	-10819
발적으로	-10820
방인지는	-10821
버깅이지	-10822
버깅하고	-10823
버리기도	-10824
법이라고	-10825
법입니다	-10826
보드에서	-10827
본적으로	-10828
분적으로	-10829
비입니다	-10830
사합니다	-10831
상됩니다	-10832
색이었다	-10833
생멸이라	-10834
생합니다	-10835
성됩니다	-10836
성입니다	-10837
성합니다	-10838
성화하여	-10839
세조정에	-10840
세조정은	-10841
세조정할	-10842
셈입니다	-10843
소리에서	-10844
소성에서	-10845
소음으로	-10846
수입니다	-10847
수적으로	-10848
스턴스를	-10849
스템으로	-10850
스템이다	-10851
스트레이	-10852
스트에서	-10853
슨해지며	-10854
시간으로	-10855
시됩니다	-10856
식으로는	-10857
식입니다	-10858
식적으로	-10859
신합니다	-10860
실레이터	-10861
실입니다	-10862
아내더라	-10863
안되었다	-10864
않습니다	-10865
았습니다	-10866
어입니다	-10867
어집니다	-10868
업합니다	-10869
없습니다	-10870
었습니다	-10871
었으니까	-10872
여주었다	-10873
여합니다	-10874
연스러운	-10875
요합니다	-10876
용합니다	-10877
움직여야	-10878
웃음소리	-10879
워크에서	-10880
율적으로	-10881
의식에서	-10882
이론에서	-10883
이션이야	-10884
이터에는	-10885
이프니츠	-10886
이프라인	-10887
인터에서	-10888
일이니까	-10889
입합니다	-10890
작습니다	-10891
작용에서	-10892
작용하는	-10893
작합니다	-10894
잔하지만	-10895
장됩니다	-10896
장합니다	-10897
재적으로	-10898
적습니다	-10899
적이지만	-10900
전달물질	-10901
전파되고	-10902
전파된다	-10903
전하지는	-10904
점으로는	-10905
접적으로	-10906
정됩니다	-10907
정입니다	-10908
정적으로	-10909
정합니다	-10910
젠테이션	-10911
줄입니다	-10912
즘입니다	-10913
증합니다	-10914
지합니다	-10915
진됩니다	-10916
진적으로	-10917
질적으로	-10918
징적이다	-10919
찾습니다	-10920
체적으로	-10921
출합니다	-10922
측됩니다	-10923
치입니다	-10924
치하도록	-10925
칩입니다	-10926
카페인도	-10927
커톤이야	-10928
컨텍스트	-10929
코딩이고	-10930
코딩하는	-10931
코딩한다	-10932
쿠로스는	-10933
크나이저	-10934
크포인트	-10935
크포인팅	-10936
키텍처는	-10937
키텍처와	-10938
태입니다	-10939
터링하고	-10940
터링하는	-10941
텍스트를	-10942
토리지에	-10943
트라디안	-10944
트입니다	-10945
티마이저	-10946
팅됩니다	-10947
팅하더라	-10948
파에서는	-10949
패하니까	-10950
페이스로	-10951
퓨팅이란	-10952
프스태터	-10953
프트맥스	-10954
플롭스의	-10955
피합니다	-10956
하는지를	-10957
학적으로	-10958
함됩니다	-10959
함으로써	-10960
해집니다	-10961
했으니까	-10962
행됩니다	-10963
행입니다	-10964
행합니다	-10965
험적으로	-10966
현됩니다	-10967
현합니다	-10968
화용론의	-10969
화하도록	-10970
화합니다	-10971
환하도록	-10972
회귀라는	-10973
회적이며	-10974
TANEO	-10975
VEMIN	-10976
YSTEM	-10977
alpha	-10978
ation	-10979
consc	-10980
entit	-10981
flare	-10982
gmoid	-10983
iming	-10984
inear	-10985
otion	-10986
ousne	-10987
quare	-10988
retur	-10989
silon	-10990
ureFi	-10991
verif	-10992
▁Adap	-10993
▁SPON	-10994
▁SwiG	-10995
▁Swis	-10996
▁grad	-10997
▁soft	-10998
▁spea	-10999
▁가까워지	-11000
▁가이드해	-11001
▁감소시키	-11002
▁감소하다	-11003
▁감정이라	-11004
▁경험하겠	-11005
▁경험한다	-11006
▁공간에서	-11007
▁공유해줄	-11008
▁구현했다	-11009
▁그래디언	-11010
▁길어진다	-11011
▁나뭇가지	-11012
▁데이터로	-11013
▁동기화되	-11014
▁된장찌개	-11015
▁만개했다	-11016
▁만들어내	-11017
▁만들어집	-11018
▁멜로디였	-11019
▁반복된다	-11020
▁발견되었	-11021
▁발생시키	-11022
▁방법으로	-11023
▁변덕스럽	-11024
▁변화야말	-11025
▁변환되는	-11026
▁복귀시킨	-11027
▁불안정해	-11028
▁비트겐슈	-11029
▁생성이라	-11030
▁설계되었	-11031
▁스케줄이	-11032
▁스트리밍	-11033
▁슬라이스	-11034
▁슬라이싱	-11035
▁시작했었	-11036
▁아이스크	-11037
▁양자역학	-11038
▁유지되어	-11039
▁유지하면	-11040
▁의식이라	-11041
▁이루어지	-11042
▁이야기인	-11043
▁이해하려	-11044
▁인식한다	-11045
▁일어나기	-11046
▁일치시키	-11047
▁임베딩에	-11048
▁자연스러	-11049
▁자연스럽	-11050
▁작동하는	-11051
▁전파에서	-11052
▁절반이면	-11053
▁중요한가	-11054
▁증가시키	-11055
▁창발하는	-11056
▁추출하려	-11057
▁코딩하려	-11058
▁토크나이	-11059
▁통합정보	-11060
▁트러블슈	-11061
▁파르메니	-11062
▁퍼플렉시	-11063
▁프로그래	-11064
▁프로그램	-11065
▁프로블럼	-11066
▁프로이트	-11067
▁프로젝트	-11068
▁프리드리	-11069
▁하드웨어	-11070
▁하드코딩	-11071
▁하이퍼파	-11072
▁학습률까	-11073
▁학습하면	-11074
▁향상시키	-11075
▁현실만큼	-11076
▁호메오스	-11077
▁호접지몽	-11078
▁호환되어	-11079
규화합니다	-11080
깜빡했어요	-11081
끄러워진다	-11082
니즘입니다	-11083
대화하도록	-11084
되었습니다	-11085
라미터이다	-11086
라색이었다	-11087
라클레이토	-11088
라플롭스의	-11089
레이터들이	-11090
레이토스가	-11091
레이토스는	-11092
레이토스의	-11093
생했으니까	-11094
세조정이란	-11095
세조정하는	-11096
스트레이터	-11097
시보드에서	-11098
요일이니까	-11099
울트라디안	-11100
원회귀라는	-11101
이프니츠의	-11102
잡아내더라	-11103
정보이론에	-11104
정보이론의	-11105
제이션이야	-11106
카페인으로	-11107
케스트레이	-11108
텍스트에서	-11109
포머에서는	-11110
프스태터의	-11111
프트맥스는	-11112
학적으로는	-11113
활성화하여	-11114
ALANCE	-11115
ERSIST	-11116
Forwar	-11117
ITICAL	-11118
NTANEO	-11119
OpenAI	-11120
VEMIND	-11121
Xavier	-11122
eNorth	-11123
edding	-11124
ention	-11125
entity	-11126
iousne	-11127
istral	-11128
motion	-11129
return	-11130
sition	-11131
tation	-11132
▁Chinc	-11133
▁quant	-11134
▁sigmo	-11135
▁가이드해주	-11136
▁도전해봐야	-11137
▁발생시키는	-11138
▁방법으로서	-11139
▁수반하는지	-11140
▁아리스토텔	-11141
▁아이스크림	-11142
▁자연스러워	-11143
▁피드백되어	-11144
▁한국어에서	-11145
▁형식적으로	-11146
▁호메오스타	-11147
개변수입니다	-11148
뮬레이션한다	-11149
정보이론에서	-11150
케스트레이터	-11151
ERSISTE	-11152
IVEMIND	-11153
NTANEOU	-11154
bedding	-11155
emotion	-11156
epsilon	-11157
iousnes	-11158
loudfla	-11159
tention	-11160
▁아리스토텔레	-11161
▁알고리즘이라	-11162
▁인공의식에서	-11163
▁호메오스타시	-11164
케스트레이터는	-11165
케스트레이티드	-11166
iousness	-11167
mbedding	-11168
ureField	-11169
▁토크나이제이션	-11170
▁하이퍼파라미터	-11171
conscious	-11172
▁Adaptati	-11173
▁Cloudfla	-11174
▁SPONTANE	-11175
ERSISTENCE	-11176
▁conscious	-11177
▁	-11178
.	-11179
이	-11180
다	-11181
의	-11182
는	-11183
,	-11184
하	-11185
에	-11186
어	-11187
가	-11188
로	-11189
은	-11190
한	-11191
을	-11192
니	-11193
서	-11194
지	-11195
를	-11196
수	-11197
기	-11198
인	-11199
식	-11200
고	-11201
적	-11202
모	-11203
있	-11204
정	-11205
리	-11206
으	-11207
스	-11208
시	-11209
?	-11210
해	-11211
도	-11212
트	-11213
자	-11214
아	-11215
과	-11216
그	-11217
나	-11218
면	-11219
습	-11220
요	-11221
사	-11222
보	-11223
학	-11224
상	-11225
라	-11226
성	-11227
합	-11228
여	-11229
것	-11230
게	-11231
대	-11232
만	-11233
i	-11234
전	-11235
진	-11236
래	-11237
야	-11238
간	-11239
동	-11240
화	-11241
계	-11242
되	-11243
문	-11244
입	-11245
중	-11246
P	-11247
용	-11248
일	-11249
델	-11250
:	-11251
경	-11252
들	-11253
변	-11254
장	-11255
질	-11256
드	-11257
터	-11258
할	-11259
거	-11260
언	-11261
크	-11262
소	-11263
치	-11264
데	-11265
비	-11266
오	-11267
1	-11268
현	-11269
까	-11270
무	-11271
생	-11272
통	-11273
며	-11274
실	-11275
연	-11276
방	-11277
법	-11278
분	-11279
제	-11280
주	-11281
체	-11282
우	-11283
0	-11284
태	-11285
러	-11286
바	-11287
포	-11288
세	-11289
디	-11290
메	-11291
된	-11292
점	-11293
a	-11294
e	-11295
구	-11296
답	-11297
발	-11298
순	-11299
작	-11300
각	-11301
미	-11302
와	-11303
처	-11304
h	-11305
능	-11306
엔	-11307
부	-11308
좋	-11309
파	-11310
_	-11311
값	-11312
공	-11313
물	-11314
차	-11315
감	-11316
원	-11317
유	-11318
A	-11319
위	-11320
조	-11321
했	-11322
L	-11323
더	-11324
력	-11325
즘	-11326
토	-11327
때	-11328
n	-11329
관	-11330
단	-11331
록	-11332
산	-11333
안	-11334
었	-11335
S	-11336
o	-11337
내	-11338
마	-11339
반	-11340
음	-11341
준	-11342
U	-11343
p	-11344
개	-11345
규	-11346
저	-11347
프	-11348
형	-11349
히	-11350
등	-11351
신	-11352
결	-11353
됩	-11354
역	-11355
영	-11356
재	-11357
험	-11358
d	-11359
국	-11360
없	-11361
운	-11362
행	-11363
(	-11364
)	-11365
G	-11366
r	-11367
t	-11368
매	-11369
표	-11370
피	-11371
E	-11372
s	-11373
배	-11374
번	-11375
커	-11376
큰	-11377
템	-11378
R	-11379
x	-11380
늘	-11381
률	-11382
새	-11383
설	-11384
속	-11385
키	-11386
2	-11387
N	-11388
l	-11389
함	-11390
향	-11391
호	-11392
환	-11393
6	-11394
I	-11395
레	-11396
렬	-11397
르	-11398
복	-11399
선	-11400
심	-11401
않	-11402
약	-11403
워	-11404
째	-11405
최	-11406
측	-11407
코	-11408
특	-11409
m	-11410
본	-11411
예	-11412
초	-11413
3	-11414
같	-11415
말	-11416
엇	-11417
율	-11418
증	-11419
텐	-11420
효	-11421
D	-11422
f	-11423
강	-11424
근	-11425
달	-11426
든	-11427
명	-11428
응	-11429
건	-11430
란	-11431
른	-11432
많	-11433
션	-11434
손	-11435
임	-11436
추	-11437
칙	-11438
확	-11439
w	-11440
양	-11441
줄	-11442
집	-11443
C	-11444
느	-11445
듈	-11446
떻	-11447
려	-11448
직	-11449
패	-11450
후	-11451
F	-11452
u	-11453
곱	-11454
뉴	-11455
딩	-11456
떤	-11457
런	-11458
출	-11459
회	-11460
흐	-11461
5	-11462
8	-11463
H	-11464
O	-11465
날	-11466
당	-11467
두	-11468
론	-11469
맞	-11470
업	-11471
턴	-11472
필	-11473
활	-11474
-	-11475
=	-11476
b	-11477
교	-11478
금	-11479
높	-11480
뭐	-11481
벡	-11482
별	-11483
잘	-11484
접	-11485
존	-11486
좀	-11487
*	-11488
/	-11489
B	-11490
M	-11491
겠	-11492
루	-11493
열	-11494
케	-11495
텍	-11496
T	-11497
갈	-11498
견	-11499
낮	-11500
너	-11501
누	-11502
류	-11503
름	-11504
링	-11505
벌	-11506
알	-11507
억	-11508
잡	-11509
테	-11510
팅	-11511
플	-11512
핵	-11513
길	-11514
깊	-11515
네	-11516
먹	-11517
버	-11518
불	-11519
브	-11520
씨	-11521
온	-11522
절	-11523
카	-11524
클	-11525
평	-11526
W	-11527
검	-11528
꿈	-11529
롭	-11530
먼	-11531
므	-11532
벽	-11533
병	-11534
볼	-11535
완	-11536
울	-11537
창	-11538
티	-11539
균	-11540
깨	-11541
듬	-11542
량	-11543
머	-11544
백	-11545
블	-11546
져	-11547
퀀	-11548
택	-11549
항	-11550
혼	-11551
4	-11552
y	-11553
격	-11554
귀	-11555
끊	-11556
남	-11557
담	-11558
돌	-11559
돼	-11560
따	-11561
랜	-11562
밍	-11563
색	-11564
았	-11565
움	-11566
찾	-11567
천	-11568
쿼	-11569
페	-11570
픽	-11571
+	-11572
c	-11573
g	-11574
j	-11575
걸	-11576
괜	-11577
긴	-11578
노	-11579
논	-11580
람	-11581
럼	-11582
련	-11583
망	-11584
받	-11585
빛	-11586
빠	-11587
석	-11588
셋	-11589
슷	-11590
악	-11591
올	-11592
왔	-11593
왜	-11594
잖	-11595
잠	-11596
짜	-11597
찮	-11598
첫	-11599
쳐	-11600
침	-11601
타	-11602
퍼	-11603
7	-11604
k	-11605
끼	-11606
낸	-11607
뇌	-11608
독	-11609
될	-11610
둘	-11611
떠	-11612
떨	-11613
랑	-11614
럽	-11615
렴	-11616
린	-11617
립	-11618
맛	-11619
맥	-11620
목	-11621
묘	-11622
베	-11623
봐	-11624
얼	-11625
외	-11626
웜	-11627
잔	-11628
종	-11629
책	-11630
칫	-11631
쿠	-11632
풍	-11633
허	-11634
헤	-11635
힘	-11636
9	-11637
Q	-11638
V	-11639
v	-11640
갖	-11641
갱	-11642
극	-11643
글	-11644
난	-11645
냅	-11646
닝	-11647
뒤	-11648
듯	-11649
렉	-11650
못	-11651
범	-11652
샘	-11653
셈	-11654
씩	-11655
웃	-11656
읽	-11657
찰	-11658
축	-11659
컴	-11660
퓨	-11661
휘	-11662
!	-11663
%	-11664
K	-11665
q	-11666
겨	-11667
곳	-11668
괴	-11669
꽃	-11670
낌	-11671
널	-11672
넷	-11673
념	-11674
녹	-11675
놀	-11676
닌	-11677
던	-11678
덱	-11679
둠	-11680
락	-11681
료	-11682
릿	-11683
맑	-11684
밤	-11685
밴	-11686
벤	-11687
봤	-11688
빨	-11689
쁨	-11690
삶	-11691
섯	-11692
술	-11693
쉬	-11694
슨	-11695
슬	-11696
써	-11697
앉	-11698
앙	-11699
앱	-11700
얘	-11701
졌	-11702
줘	-11703
쪽	-11704
착	-11705
채	-11706
철	-11707
충	-11708
층	-11709
칩	-11710
칭	-11711
캐	-11712
큼	-11713
탑	-11714
편	-11715
폐	-11716
혀	-11717
황	-11718
흡	-11719
Z	-11720
갑	-11721
객	-11722
겪	-11723
겹	-11724
곡	-11725
골	-11726
광	-11727
권	-11728
급	-11729
김	-11730
깅	-11731
깝	-11732
껴	-11733
꿨	-11734
끝	-11735
냐	-11736
넘	-11737
녁	-11738
년	-11739
녕	-11740
눈	-11741
댑	-11742
듀	-11743
듭	-11744
딥	-11745
또	-11746
랐	-11747
렸	-11748
례	-11749
룹	-11750
멀	-11751
멜	-11752
멸	-11753
몇	-11754
몸	-11755
밀	-11756
박	-11757
밝	-11758
벗	-11759
벚	-11760
봄	-11761
북	-11762
붕	-11763
빼	-11764
살	-11765
섞	-11766
셔	-11767
쇄	-11768
숨	-11769
슈	-11770
싶	-11771
싸	-11772
쌀	-11773
쓰	-11774
앞	-11775
얻	-11776
엮	-11777
였	-11778
옵	-11779
잇	-11780
젠	-11781
죠	-11782
죽	-11783
즈	-11784
즉	-11785
찌	-11786
찬	-11787
첩	-11788
칼	-11789
킹	-11790
탄	-11791
탐	-11792
텔	-11793
튜	-11794
팀	-11795
판	-11796
폭	-11797
품	-11798
혜	-11799
횟	-11800
흘	-11801
희	-11802
J	-11803
X	-11804
Y	-11805
^	-11806
z	-11807
걱	-11808
걷	-11809
겐	-11810
곧	-11811
괄	-11812
군	-11813
깃	-11814
깜	-11815
꺼	-11816
껍	-11817
께	-11818
꽤	-11819
꾼	-11820
뀌	-11821
끄	-11822
끓	-11823
끔	-11824
낄	-11825
났	-11826
낼	-11827
넣	-11828
놓	-11829
뉘	-11830
뉜	-11831
늦	-11832
닉	-11833
님	-11834
닛	-11835
닥	-11836
댓	-11837
덕	-11838
덟	-11839
덤	-11840
돈	-11841
돕	-11842
됐	-11843
둑	-11844
득	-11845
듣	-11846
듦	-11847
딱	-11848
땅	-11849
땡	-11850
뚜	-11851
뛰	-11852
뜨	-11853
뜻	-11854
랍	-11855
램	-11856
렀	-11857
렇	-11858
렵	-11859
렷	-11860
령	-11861
롬	-11862
림	-11863
막	-11864
맙	-11865
맴	-11866
맹	-11867
멱	-11868
몽	-11869
뭇	-11870
뭉	-11871
뭔	-11872
뮬	-11873
민	-11874
밖	-11875
밸	-11876
벅	-11877
붓	-11878
뷰	-11879
빈	-11880
빔	-11881
빗	-11882
빙	-11883
빡	-11884
뻐	-11885
뻔	-11886
뿐	-11887
쁜	-11888
삼	-11889
섭	-11890
센	-11891
셀	-11892
송	-11893
숏	-11894
숙	-11895
슴	-11896
십	-11897
싱	-11898
쌈	-11899
쌓	-11900
썬	-11901
쓸	-11902
씬	-11903
앗	-11904
애	-11905
얽	-11906
엄	-11907
옥	-11908
웨	-11909
웹	-11910
윌	-11911
잊	-11912
잎	-11913
쟁	-11914
젝	-11915
족	-11916
좌	-11917
줍	-11918
쥐	-11919
즐	-11920
짓	-11921
징	-11922
쩌	-11923
참	-11924
청	-11925
촉	-11926
츠	-11927
친	-11928
칸	-11929
컨	-11930
컬	-11931
컷	-11932
켰	-11933
콘	-11934
쾌	-11935
퀴	-11936
큐	-11937
킨	-11938
톡	-11939
톤	-11940
틈	-11941
팝	-11942
팩	-11943
팬	-11944
펜	-11945
